{
  "version": "1.0",
  "truncation": null,
  "padding": null,
  "added_tokens": [
    {
      "id": 0,
      "content": "<|begin_of_sentence|>",
      "single_word": false,
      "lstrip": false,
      "rstrip": false,
      "normalized": false,
      "special": true
    },
    {
      "id": 1,
      "content": "<|end_of_sentence|>",
      "single_word": false,
      "lstrip": false,
      "rstrip": false,
      "normalized": false,
      "special": true
    },
    {
      "id": 2,
      "content": "<|pad|>",
      "single_word": false,
      "lstrip": false,
      "rstrip": false,
      "normalized": false,
      "special": true
    },
    {
      "id": 3,
      "content": "<|unk|>",
      "single_word": false,
      "lstrip": false,
      "rstrip": false,
      "normalized": false,
      "special": true
    }
  ],
  "normalizer": null,
  "pre_tokenizer": {
    "type": "ByteLevel",
    "add_prefix_space": false,
    "trim_offsets": true,
    "use_regex": true
  },
  "post_processor": null,
  "decoder": {
    "type": "ByteLevel",
    "add_prefix_space": true,
    "trim_offsets": true,
    "use_regex": true
  },
  "model": {
    "type": "BPE",
    "dropout": null,
    "unk_token": null,
    "continuing_subword_prefix": null,
    "end_of_word_suffix": null,
    "fuse_unk": false,
    "byte_fallback": false,
    "ignore_merges": false,
    "vocab": {
      "<|begin_of_sentence|>": 0,
      "<|end_of_sentence|>": 1,
      "<|pad|>": 2,
      "<|unk|>": 3,
      "!": 4,
      "\"": 5,
      "#": 6,
      "$": 7,
      "%": 8,
      "&": 9,
      "'": 10,
      "(": 11,
      ")": 12,
      "*": 13,
      "+": 14,
      ",": 15,
      "-": 16,
      ".": 17,
      "/": 18,
      "0": 19,
      "1": 20,
      "2": 21,
      "3": 22,
      "4": 23,
      "5": 24,
      "6": 25,
      "7": 26,
      "8": 27,
      "9": 28,
      ":": 29,
      ";": 30,
      "<": 31,
      "=": 32,
      ">": 33,
      "?": 34,
      "@": 35,
      "A": 36,
      "B": 37,
      "C": 38,
      "D": 39,
      "E": 40,
      "F": 41,
      "G": 42,
      "H": 43,
      "I": 44,
      "J": 45,
      "K": 46,
      "L": 47,
      "M": 48,
      "N": 49,
      "O": 50,
      "P": 51,
      "Q": 52,
      "R": 53,
      "S": 54,
      "T": 55,
      "U": 56,
      "V": 57,
      "W": 58,
      "X": 59,
      "Y": 60,
      "Z": 61,
      "[": 62,
      "\\": 63,
      "]": 64,
      "^": 65,
      "_": 66,
      "`": 67,
      "a": 68,
      "b": 69,
      "c": 70,
      "d": 71,
      "e": 72,
      "f": 73,
      "g": 74,
      "h": 75,
      "i": 76,
      "j": 77,
      "k": 78,
      "l": 79,
      "m": 80,
      "n": 81,
      "o": 82,
      "p": 83,
      "q": 84,
      "r": 85,
      "s": 86,
      "t": 87,
      "u": 88,
      "v": 89,
      "w": 90,
      "x": 91,
      "y": 92,
      "z": 93,
      "{": 94,
      "|": 95,
      "}": 96,
      "~": 97,
      "¡": 98,
      "¢": 99,
      "£": 100,
      "¤": 101,
      "¥": 102,
      "¦": 103,
      "§": 104,
      "¨": 105,
      "©": 106,
      "ª": 107,
      "«": 108,
      "¬": 109,
      "®": 110,
      "¯": 111,
      "°": 112,
      "±": 113,
      "²": 114,
      "³": 115,
      "´": 116,
      "µ": 117,
      "¶": 118,
      "·": 119,
      "¸": 120,
      "¹": 121,
      "º": 122,
      "»": 123,
      "¼": 124,
      "½": 125,
      "¾": 126,
      "¿": 127,
      "À": 128,
      "Á": 129,
      "Â": 130,
      "Ã": 131,
      "Ä": 132,
      "Å": 133,
      "Æ": 134,
      "Ç": 135,
      "È": 136,
      "É": 137,
      "Ê": 138,
      "Ë": 139,
      "Ì": 140,
      "Í": 141,
      "Î": 142,
      "Ï": 143,
      "Ð": 144,
      "Ñ": 145,
      "Ò": 146,
      "Ó": 147,
      "Ô": 148,
      "Õ": 149,
      "Ö": 150,
      "×": 151,
      "Ø": 152,
      "Ù": 153,
      "Ú": 154,
      "Û": 155,
      "Ü": 156,
      "Ý": 157,
      "Þ": 158,
      "ß": 159,
      "à": 160,
      "á": 161,
      "â": 162,
      "ã": 163,
      "ä": 164,
      "å": 165,
      "æ": 166,
      "ç": 167,
      "è": 168,
      "é": 169,
      "ê": 170,
      "ë": 171,
      "ì": 172,
      "í": 173,
      "î": 174,
      "ï": 175,
      "ð": 176,
      "ñ": 177,
      "ò": 178,
      "ó": 179,
      "ô": 180,
      "õ": 181,
      "ö": 182,
      "÷": 183,
      "ø": 184,
      "ù": 185,
      "ú": 186,
      "û": 187,
      "ü": 188,
      "ý": 189,
      "þ": 190,
      "ÿ": 191,
      "Ā": 192,
      "ā": 193,
      "Ă": 194,
      "ă": 195,
      "Ą": 196,
      "ą": 197,
      "Ć": 198,
      "ć": 199,
      "Ĉ": 200,
      "ĉ": 201,
      "Ċ": 202,
      "ċ": 203,
      "Č": 204,
      "č": 205,
      "Ď": 206,
      "ď": 207,
      "Đ": 208,
      "đ": 209,
      "Ē": 210,
      "ē": 211,
      "Ĕ": 212,
      "ĕ": 213,
      "Ė": 214,
      "ė": 215,
      "Ę": 216,
      "ę": 217,
      "Ě": 218,
      "ě": 219,
      "Ĝ": 220,
      "ĝ": 221,
      "Ğ": 222,
      "ğ": 223,
      "Ġ": 224,
      "ġ": 225,
      "Ģ": 226,
      "ģ": 227,
      "Ĥ": 228,
      "ĥ": 229,
      "Ħ": 230,
      "ħ": 231,
      "Ĩ": 232,
      "ĩ": 233,
      "Ī": 234,
      "ī": 235,
      "Ĭ": 236,
      "ĭ": 237,
      "Į": 238,
      "į": 239,
      "İ": 240,
      "ı": 241,
      "Ĳ": 242,
      "ĳ": 243,
      "Ĵ": 244,
      "ĵ": 245,
      "Ķ": 246,
      "ķ": 247,
      "ĸ": 248,
      "Ĺ": 249,
      "ĺ": 250,
      "Ļ": 251,
      "ļ": 252,
      "Ľ": 253,
      "ľ": 254,
      "Ŀ": 255,
      "ŀ": 256,
      "Ł": 257,
      "ł": 258,
      "Ń": 259,
      "Ä±": 260,
      "ar": 261,
      "an": 262,
      "er": 263,
      "Ã¼": 264,
      "in": 265,
      "ÅŁ": 266,
      "Ġb": 267,
      "en": 268,
      "Ä±n": 269,
      "il": 270,
      "ir": 271,
      "Ã§": 272,
      "al": 273,
      "ÄŁ": 274,
      "Ġk": 275,
      "lar": 276,
      "ak": 277,
      "Ġy": 278,
      "Ġd": 279,
      "Ġs": 280,
      "Ã¶": 281,
      "Ġo": 282,
      "el": 283,
      "Ġv": 284,
      "Ġg": 285,
      "as": 286,
      "ay": 287,
      "et": 288,
      "es": 289,
      "Ġt": 290,
      "on": 291,
      "ek": 292,
      "da": 293,
      "un": 294,
      "Ġve": 295,
      "ler": 296,
      "ik": 297,
      "at": 298,
      "Ä±r": 299,
      "is": 300,
      "ĠA": 301,
      "de": 302,
      "am": 303,
      "Ä±l": 304,
      "ĠB": 305,
      "ad": 306,
      "Ġ1": 307,
      "ur": 308,
      "Ġbir": 309,
      "aÅŁ": 310,
      "ul": 311,
      "iy": 312,
      "ĠS": 313,
      "Ġm": 314,
      "or": 315,
      "em": 316,
      "ĠK": 317,
      "ĠM": 318,
      "im": 319,
      "ol": 320,
      "Ġ(": 321,
      "Ã¼r": 322,
      "ed": 323,
      "Ġol": 324,
      "ĠT": 325,
      "Ġh": 326,
      "iÅŁ": 327,
      "Ã¼n": 328,
      "it": 329,
      "Ä±ÅŁ": 330,
      "Ġil": 331,
      "lÄ±": 332,
      "le": 333,
      "az": 334,
      "Ä±nda": 335,
      "ah": 336,
      "ĠÃ§": 337,
      "ĠD": 338,
      "Ä°": 339,
      "ap": 340,
      "20": 341,
      "aÄŁ": 342,
      "Ġ19": 343,
      "Ġf": 344,
      "ey": 345,
      "us": 346,
      "lan": 347,
      "li": 348,
      "ĠH": 349,
      "ya": 350,
      "larÄ±": 351,
      "ĠÃ¶": 352,
      "ev": 353,
      "'d": 354,
      "iz": 355,
      "dan": 356,
      "ĠÄ°": 357,
      "ĠG": 358,
      "ine": 359,
      "ĠE": 360,
      "Ä±k": 361,
      "Ä±m": 362,
      "ĠP": 363,
      "ĠĊ": 364,
      "ab": 365,
      "inde": 366,
      "Ġp": 367,
      "Ã¼z": 368,
      "um": 369,
      "di": 370,
      "Ġi": 371,
      "Ġal": 372,
      "ĠC": 373,
      "esi": 374,
      "asÄ±": 375,
      "leri": 376,
      "Ã¶r": 377,
      "ĠF": 378,
      "du": 379,
      "âĢ": 380,
      "dÄ±": 381,
      "la": 382,
      "ĠÃ": 383,
      "Ã¼k": 384,
      "ĠY": 385,
      "Ġ20": 386,
      "af": 387,
      "eri": 388,
      "om": 389,
      "Ã¼l": 390,
      "ĠÅŁ": 391,
      "ĠR": 392,
      "ĠyÄ±l": 393,
      "ist": 394,
      "Ã¼m": 395,
      "ilm": 396,
      "ut": 397,
      "ĠO": 398,
      "ez": 399,
      "oÄŁ": 400,
      "av": 401,
      "ok": 402,
      "den": 403,
      "st": 404,
      "ĠL": 405,
      "larÄ±n": 406,
      "Ġ-": 407,
      "ini": 408,
      "larak": 409,
      "Ġde": 410,
      "ĠiÃ§": 411,
      "tÄ±": 412,
      "ti": 413,
      "tir": 414,
      "Ġar": 415,
      "Ġtar": 416,
      "Ġolarak": 417,
      "uÅŁ": 418,
      "Ġson": 419,
      "Ã¶n": 420,
      "Ä±s": 421,
      "lu": 422,
      "Ġile": 423,
      "tÄ±r": 424,
      "ac": 425,
      "inin": 426,
      "Ġyap": 427,
      "Ġr": 428,
      "dÄ±r": 429,
      "ĠbaÅŁ": 430,
      "ĠN": 431,
      "ce": 432,
      "19": 433,
      "os": 434,
      "Ġn": 435,
      "Ä±ndan": 436,
      "aÃ§": 437,
      "uz": 438,
      "mÄ±ÅŁ": 439,
      "Ġ\"": 440,
      "Ä±nÄ±": 441,
      "Ġan": 442,
      "ÄŁi": 443,
      "alar": 444,
      "cu": 445,
      "Ã¼rk": 446,
      "ÄŁÄ±": 447,
      "dir": 448,
      "op": 449,
      "lik": 450,
      "man": 451,
      "Ġbu": 452,
      "Ġkar": 453,
      "adÄ±": 454,
      "ĠgÃ¶r": 455,
      "ic": 456,
      "iler": 457,
      "ra": 458,
      "eÅŁ": 459,
      "eÃ§": 460,
      "mak": 461,
      "Ġet": 462,
      "âĢĻ": 463,
      "ih": 464,
      "aki": 465,
      "ĠbaÄŁ": 466,
      "te": 467,
      "Ä±na": 468,
      "ĠiÃ§in": 469,
      "Ġda": 470,
      "ro": 471,
      "Ġolan": 472,
      "lam": 473,
      "Ġ200": 474,
      "Ã¶y": 475,
      "len": 476,
      "Ã¼y": 477,
      "ib": 478,
      "Ġed": 479,
      "eler": 480,
      "Ġ2": 481,
      "Ä±z": 482,
      "up": 483,
      "iÅŁtir": 484,
      "alÄ±": 485,
      "ip": 486,
      "ca": 487,
      "ta": 488,
      "Ġoldu": 489,
      "ekt": 490,
      "Åŀ": 491,
      "ayn": 492,
      "iye": 493,
      "isi": 494,
      "ran": 495,
      "ark": 496,
      "ĠI": 497,
      "Ġyer": 498,
      "ma": 499,
      "Ã¶l": 500,
      "Ġz": 501,
      "Ġgel": 502,
      "erk": 503,
      "ĠV": 504,
      "ĠAn": 505,
      "Ã¼ÅŁ": 506,
      "Ġbul": 507,
      "ĠTÃ¼rk": 508,
      "lÄ±k": 509,
      "ĠĠ": 510,
      "ĠJ": 511,
      "eh": 512,
      "ĠÃ¶n": 513,
      "eb": 514,
      "yun": 515,
      "tad": 516,
      "ec": 517,
      "ĠBu": 518,
      "eki": 519,
      "Ġis": 520,
      "Ġin": 521,
      "Ġen": 522,
      "aya": 523,
      "ĠyÄ±lÄ±nda": 524,
      "Ġtaraf": 525,
      "Ġkur": 526,
      "uy": 527,
      "ĠÅŀ": 528,
      "he": 529,
      "tur": 530,
      "Ġver": 531,
      "leÅŁ": 532,
      "asÄ±nda": 533,
      "Ġc": 534,
      "Ä±nÄ±n": 535,
      "yon": 536,
      "00": 537,
      "bol": 538,
      "ayÄ±": 539,
      "Ġkul": 540,
      "tadÄ±r": 541,
      "ĠW": 542,
      "ÄŁu": 543,
      "let": 544,
      "ot": 545,
      "ĠAl": 546,
      "ĠÃĩ": 547,
      "uk": 548,
      "mÄ±ÅŁtÄ±r": 549,
      "ers": 550,
      "Ġad": 551,
      "Ġbulun": 552,
      "Ġik": 553,
      "masÄ±": 554,
      "Ġor": 555,
      "aha": 556,
      "eni": 557,
      "iv": 558,
      "ĠU": 559,
      "Ġsonra": 560,
      "anÄ±": 561,
      "ĠtarafÄ±ndan": 562,
      "ĠdoÄŁ": 563,
      "ter": 564,
      "ig": 565,
      "Âł": 566,
      "edir": 567,
      "Ġ3": 568,
      "inden": 569,
      "nin": 570,
      "ĠÃĸ": 571,
      "Ã§a": 572,
      "Ġbil": 573,
      "ĠAr": 574,
      "ĠgÃ¶": 575,
      "nÄ±n": 576,
      "tan": 577,
      "'t": 578,
      "Ġkullan": 579,
      "ĠgeÃ§": 580,
      "Ġay": 581,
      "ov": 582,
      "yla": 583,
      "ĠdÃ¶n": 584,
      "Ġkad": 585,
      "id": 586,
      "Ġyaz": 587,
      "),": 588,
      "ilir": 589,
      "Ã¢": 590,
      "ci": 591,
      "ilen": 592,
      "Ġkon": 593,
      "Ġilk": 594,
      "art": 595,
      "ĠÃ§Ä±k": 596,
      "Ġel": 597,
      "ĠsÃ¼r": 598,
      "lem": 599,
      "ada": 600,
      "Ġtarih": 601,
      "re": 602,
      "utbol": 603,
      "||": 604,
      "Ġkal": 605,
      "ub": 606,
      "ayan": 607,
      "Ã¼Ã§": 608,
      "cÄ±": 609,
      "ĠÃ¼z": 610,
      "daki": 611,
      "Ã¼yÃ¼k": 612,
      "ili": 613,
      "ibi": 614,
      "aynak": 615,
      "ki": 616,
      "Ġ199": 617,
      "cak": 618,
      "ĠbÃ¶l": 619,
      "unda": 620,
      "Ġfilm": 621,
      "ĠdeÄŁ": 622,
      "ĠÃ¼zer": 623,
      "Ä±lan": 624,
      "mer": 625,
      "esine": 626,
      "Ġdaha": 627,
      "Ġsah": 628,
      "Ġolm": 629,
      "uÅŁtur": 630,
      "arÄ±": 631,
      "Ġken": 632,
      "ĠBir": 633,
      "ĠyÃ¶n": 634,
      "ĠyaÅŁ": 635,
      "ektedir": 636,
      "aman": 637,
      "unu": 638,
      "od": 639,
      "Ġfutbol": 640,
      "Ġ201": 641,
      "iyle": 642,
      "Ġbel": 643,
      "ken": 644,
      "erek": 645,
      "if": 646,
      "iÄŁ": 647,
      "akÄ±m": 648,
      "ing": 649,
      "Ã§e": 650,
      "rÄ±": 651,
      "laÅŁ": 652,
      "erkez": 653,
      "men": 654,
      "Ġise": 655,
      "ĠyÃ¼z": 656,
      "Ġoyun": 657,
      "ĠÃ§ok": 658,
      "ne": 659,
      "Ġuz": 660,
      "Ġtop": 661,
      "ans": 662,
      "ch": 663,
      "maktadÄ±r": 664,
      "Ġtek": 665,
      "ildi": 666,
      "Ġon": 667,
      "Ġes": 668,
      "deki": 669,
      "iyet": 670,
      "Ġyar": 671,
      "Ġyay": 672,
      "ĠÃ§al": 673,
      "Ġgibi": 674,
      "ĠbaÄŁlan": 675,
      "me": 676,
      "merik": 677,
      "200": 678,
      "Ä±sÄ±": 679,
      "ef": 680,
      "ĠkarÅŁ": 681,
      "Ġ18": 682,
      "eleri": 683,
      "ĠiÅŁ": 684,
      "ĠgÃ¼n": 685,
      "ri": 686,
      "ara": 687,
      "rup": 688,
      "Ã®": 689,
      "sel": 690,
      "ĠaÃ§": 691,
      "Ġgen": 692,
      "avaÅŁ": 693,
      "Ã¼s": 694,
      "Ã¼t": 695,
      "Ä±ldÄ±": 696,
      "ĠâĢ": 697,
      "eden": 698,
      "lerin": 699,
      "Ġdev": 700,
      "Ġ4": 701,
      "tr": 702,
      "Ġas": 703,
      "Kaynak": 704,
      "Ġat": 705,
      "eye": 706,
      "KaynakÃ§a": 707,
      "ĠbÃ¼yÃ¼k": 708,
      "tÄ±lar": 709,
      "ĠbaÄŁlÄ±": 710,
      "lÃ¼": 711,
      "iyon": 712,
      "ep": 713,
      "oy": 714,
      "raf": 715,
      "ÄŁr": 716,
      "san": 717,
      "ĠÃ§alÄ±ÅŁ": 718,
      "gil": 719,
      "Ã¶z": 720,
      "ede": 721,
      "dÃ¼r": 722,
      "ĠÃľ": 723,
      "est": 724,
      "Ġ||": 725,
      "Ã¼f": 726,
      "ĠkÃ¶y": 727,
      "ĠÃ¶z": 728,
      "eli": 729,
      "usu": 730,
      "ade": 731,
      "Ġvar": 732,
      "Ġmerkez": 733,
      "tal": 734,
      "Ġl": 735,
      "sa": 736,
      "edi": 737,
      "ĠÃ¶l": 738,
      "ladÄ±": 739,
      "miÅŁtir": 740,
      "Ä±lÄ±": 741,
      "miÅŁ": 742,
      "olo": 743,
      "arak": 744,
      "unun": 745,
      "Ġkat": 746,
      "stan": 747,
      "Ġ198": 748,
      "ĠÄ°n": 749,
      "Ġkadar": 750,
      "ĠsÄ±r": 751,
      "Ġhal": 752,
      "esinde": 753,
      "iyat": 754,
      "Ġfutbolcu": 755,
      "ag": 756,
      "ĠÄ°s": 757,
      "ĠarasÄ±nda": 758,
      "Ġyak": 759,
      "larda": 760,
      "dÃ¼l": 761,
      "Ġzaman": 762,
      "yn": 763,
      "DÄ±ÅŁ": 764,
      "larÄ±nda": 765,
      "ĠbaÄŁlantÄ±lar": 766,
      "Ġ5": 767,
      "met": 768,
      "aÄŁÄ±": 769,
      "oz": 770,
      "ĠtakÄ±m": 771,
      "ĠdÃ¶nem": 772,
      "dÃ¼": 773,
      "alarÄ±": 774,
      "por": 775,
      "mas": 776,
      "ĠilÃ§": 777,
      "der": 778,
      "arkÄ±": 779,
      "Ġtan": 780,
      "km": 781,
      "han": 782,
      "ĠadÄ±": 783,
      "ĠEr": 784,
      "Ġkurul": 785,
      "ster": 786,
      "amp": 787,
      "gi": 788,
      "bÃ¼m": 789,
      "bul": 790,
      "uv": 791,
      "mektedir": 792,
      "Ġuy": 793,
      "ob": 794,
      "Ġkaz": 795,
      "ĠAv": 796,
      "imi": 797,
      "ĠZ": 798,
      "liÄŁi": 799,
      "Ġ197": 800,
      "Ã¼c": 801,
      "Ġsahip": 802,
      "Ġiki": 803,
      "lÄ±ÄŁÄ±": 804,
      "tÃ¼r": 805,
      "stanbul": 806,
      "ĠdÃ¼ÅŁ": 807,
      "sÄ±z": 808,
      "Ġveya": 809,
      "ĠbÃ¶lg": 810,
      "Ġpro": 811,
      "ram": 812,
      "eÄŁ": 813,
      "ĠĠĠĠ": 814,
      "mek": 815,
      "Ġak": 816,
      "ard": 817,
      "ĠAmerik": 818,
      "atÄ±": 819,
      "lara": 820,
      "iÃ§": 821,
      "ill": 822,
      "Ġalan": 823,
      "istan": 824,
      "all": 825,
      "yan": 826,
      "ĠgÃ¶re": 827,
      "Ã¼nya": 828,
      "rÄ±ca": 829,
      "Ġa": 830,
      "Ġden": 831,
      "iÄŁer": 832,
      "uÃ§": 833,
      "uh": 834,
      "Ġ196": 835,
      "ĠkiÅŁ": 836,
      "Ġbirlik": 837,
      "Ġsay": 838,
      "ĠOr": 839,
      "una": 840,
      "Ġyeni": 841,
      "ĠyÃ¼k": 842,
      "Ġof": 843,
      "asyon": 844,
      "ellik": 845,
      "og": 846,
      "ĠDev": 847,
      "Ġist": 848,
      "Ġpar": 849,
      "ĠTÃ¼rkiye": 850,
      "umlu": 851,
      "ĠolduÄŁu": 852,
      "ĠEn": 853,
      "inci": 854,
      "ivers": 855,
      "ĠgÃ¶ster": 856,
      "ehir": 857,
      "Ġek": 858,
      "azÄ±": 859,
      "ĠFran": 860,
      "ĠyÃ¶net": 861,
      "Ä±ndaki": 862,
      "ĠThe": 863,
      "Ġ6": 864,
      "yÄ±l": 865,
      "ĠÅŁek": 866,
      "anat": 867,
      "ent": 868,
      "199": 869,
      "iversit": 870,
      "ezon": 871,
      "Ġger": 872,
      "Ġgir": 873,
      "ion": 874,
      "ĠsaÄŁ": 875,
      "Ġmah": 876,
      "larÄ±nÄ±": 877,
      "kan": 878,
      "Ġalt": 879,
      "sman": 880,
      "ĠdÃ¼z": 881,
      "ĠilÃ§esine": 882,
      "ileri": 883,
      "Ġyol": 884,
      "Ġyan": 885,
      "18": 886,
      "Ã¼fus": 887,
      "oloj": 888,
      "Ġev": 889,
      "ama": 890,
      "dur": 891,
      "ust": 892,
      "ĠyÃ¼zyÄ±l": 893,
      "ĠalbÃ¼m": 894,
      "ĠCh": 895,
      "na": 896,
      "ĠKar": 897,
      "ley": 898,
      "Ġkap": 899,
      "Ġkazan": 900,
      "ĠAy": 901,
      "Ġort": 902,
      "Ġhar": 903,
      "ĠmÃ¼z": 904,
      "lerini": 905,
      "ĠÄ°stanbul": 906,
      "TÃ¼rk": 907,
      "ast": 908,
      "eg": 909,
      "urum": 910,
      "ye": 911,
      "mi": 912,
      "ĠÃ¶nem": 913,
      "maya": 914,
      "Ġinsan": 915,
      "ĠÃ¼r": 916,
      "ĠÃ¼l": 917,
      "Ġder": 918,
      "ĠÃ¶ÄŁr": 919,
      "Ġher": 920,
      "ĠÅŁarkÄ±": 921,
      "ĠkÄ±s": 922,
      "ral": 923,
      "ĠtaÅŁ": 924,
      "ĠAlman": 925,
      "Ġbas": 926,
      "Ãĸ": 927,
      "Ġetti": 928,
      "lerde": 929,
      "Ġ7": 930,
      "larÄ±nÄ±n": 931,
      "ĠoluÅŁ": 932,
      "ĠgÃ¶rev": 933,
      "ilmiÅŁtir": 934,
      "Ä±lÄ±r": 935,
      "Ġsezon": 936,
      "Ġayn": 937,
      "ia": 938,
      "ĠdoÄŁumlu": 939,
      "iyas": 940,
      "Ġhay": 941,
      "ĠÃ§ek": 942,
      "Ġbirlikte": 943,
      "enin": 944,
      "Ġetk": 945,
      "ĠmaÃ§": 946,
      "Ã¼p": 947,
      "Ġtam": 948,
      "ĠAk": 949,
      "Ġhak": 950,
      "Ġkab": 951,
      "Ã§ek": 952,
      "ĠÄ°ngil": 953,
      "ĠDevlet": 954,
      "ĠdiÄŁer": 955,
      "alÄ±k": 956,
      "dÄ±ÄŁÄ±": 957,
      "ka": 958,
      "ow": 959,
      "arih": 960,
      "ĠaynÄ±": 961,
      "ten": 962,
      "ĠseÃ§": 963,
      "Ġkend": 964,
      "Ġkay": 965,
      "ĠtÃ¼r": 966,
      "smanlÄ±": 967,
      "sek": 968,
      "ge": 969,
      "niversit": 970,
      "ordu": 971,
      "hur": 972,
      "Ġbelir": 973,
      "lat": 974,
      "Ġul": 975,
      "Ä±y": 976,
      "Ġneden": 977,
      "Ã§i": 978,
      "ant": 979,
      "eti": 980,
      "malar": 981,
      "liÄŁ": 982,
      "ru": 983,
      "Ġ194": 984,
      "rak": 985,
      "Ġtem": 986,
      "ĠkarÅŁÄ±": 987,
      "ĠyaptÄ±": 988,
      "par": 989,
      "Ġ9": 990,
      "..": 991,
      "luk": 992,
      "ĠSt": 993,
      "Ã¼st": 994,
      "Ġser": 995,
      "lÄ±ÄŁ": 996,
      "oÄŁraf": 997,
      "mesi": 998,
      "ĊĊ": 999,
      "Ġoyn": 1000,
      "eyi": 1001,
      "indeki": 1002,
      "lerinin": 1003,
      "Ġ8": 1004,
      "oc": 1005,
      "istem": 1006,
      "acÄ±": 1007,
      "nun": 1008,
      "nde": 1009,
      "Ġ195": 1010,
      "ĠÃ¼Ã§": 1011,
      "rupa": 1012,
      "se": 1013,
      "abilir": 1014,
      "ator": 1015,
      "ĠÃ¼lk": 1016,
      "ampiyon": 1017,
      "ĠolduÄŁ": 1018,
      "Ä±mÄ±": 1019,
      "larÄ±na": 1020,
      "ĠfutbolcularÄ±": 1021,
      "Ã¼nde": 1022,
      "Ġthe": 1023,
      "ulu": 1024,
      "Ġim": 1025,
      "ĠDÃ¼nya": 1026,
      "Ġgelen": 1027,
      "acak": 1028,
      "Ã¼nÃ¼": 1029,
      "ĠBaÅŁ": 1030,
      "ht": 1031,
      "ĠkÃ¶": 1032,
      "ĠÄ°l": 1033,
      "ĠÃĸdÃ¼l": 1034,
      "ĠÃ¶nemli": 1035,
      "Ġya": 1036,
      "adan": 1037,
      "Ġ15": 1038,
      "Ġoyuncu": 1039,
      "ort": 1040,
      "Ġtarihinde": 1041,
      "Ġkom": 1042,
      "ece": 1043,
      "ĠyayÄ±n": 1044,
      "201": 1045,
      "Ä±ÅŁtÄ±r": 1046,
      "and": 1047,
      "olu": 1048,
      "Ġuzak": 1049,
      "ellikle": 1050,
      "Ġ10": 1051,
      "uzey": 1052,
      "rik": 1053,
      "ĠKon": 1054,
      "Ġbulunan": 1055,
      "ĠMar": 1056,
      "ĠadlÄ±": 1057,
      "iyi": 1058,
      "ĠaÄŁ": 1059,
      "ĠÃľniversit": 1060,
      "ilik": 1061,
      "ĠsÃ¶z": 1062,
      "ich": 1063,
      "ĠSavaÅŁ": 1064,
      "Ġbak": 1065,
      "ide": 1066,
      "Ġeski": 1067,
      "Ġok": 1068,
      "ker": 1069,
      "Ġmil": 1070,
      "van": 1071,
      "ĠOsmanlÄ±": 1072,
      "oÄŁu": 1073,
      "ĠsavaÅŁ": 1074,
      "umhur": 1075,
      "Ġfark": 1076,
      "Ġres": 1077,
      "lerinde": 1078,
      "esinin": 1079,
      "nda": 1080,
      "Ġdiz": 1081,
      "orm": 1082,
      "Ġhem": 1083,
      "ĠĊĠĊ": 1084,
      "ilmiÅŁ": 1085,
      "diÄŁi": 1086,
      "end": 1087,
      "ud": 1088,
      "Ġgerek": 1089,
      "Ä±lÄ±k": 1090,
      "ket": 1091,
      "bir": 1092,
      "ĠGen": 1093,
      "Ġam": 1094,
      "yi": 1095,
      "eÅŁit": 1096,
      "ĠGÃ¼n": 1097,
      "ĠgerÃ§ek": 1098,
      "lay": 1099,
      "ĠÅŁekil": 1100,
      "ĠeÄŁ": 1101,
      "ĠâĢĵ": 1102,
      "Ä±lmÄ±ÅŁtÄ±r": 1103,
      "esini": 1104,
      "parator": 1105,
      "ĠdoÄŁumlular": 1106,
      "rub": 1107,
      "ĠdÄ±ÅŁ": 1108,
      "Ġ192": 1109,
      "Ġ17": 1110,
      "198": 1111,
      "Ġsistem": 1112,
      "ĠÃ¼ret": 1113,
      "leÅŁtir": 1114,
      "tÃ¼": 1115,
      "lere": 1116,
      "Ġbilin": 1117,
      "Ġbo": 1118,
      "ocu": 1119,
      "Ã©": 1120,
      "dar": 1121,
      "uc": 1122,
      "Ġuyg": 1123,
      "ĠAs": 1124,
      "ĠaÃ§Ä±k": 1125,
      "ĠbaÅŁladÄ±": 1126,
      "Ġdurum": 1127,
      "ĠdÃ¼zen": 1128,
      "ber": 1129,
      "ĠiÃ§inde": 1130,
      "ĠBr": 1131,
      "Ã§ok": 1132,
      "Ġmet": 1133,
      "Ġaz": 1134,
      "ĠĊĊ": 1135,
      "ĠAvrupa": 1136,
      "elik": 1137,
      "lardan": 1138,
      "ĠoluÅŁtur": 1139,
      "ew": 1140,
      "etir": 1141,
      "ĠÃ¼y": 1142,
      "nik": 1143,
      "ĠiÃ§er": 1144,
      "Ġyet": 1145,
      "Ġit": 1146,
      "ĠaÅŁ": 1147,
      "ĠLig": 1148,
      "ĠEy": 1149,
      ").": 1150,
      "ĠÃ§ev": 1151,
      "ĠbÃ¶lÃ¼m": 1152,
      "ens": 1153,
      "cÃ¼": 1154,
      "Ġli": 1155,
      "ĠRus": 1156,
      "ĠdeÄŁiÅŁ": 1157,
      "ĠaldÄ±": 1158,
      "ecek": 1159,
      "Ġbiri": 1160,
      "Ġ16": 1161,
      "000": 1162,
      "Ġgetir": 1163,
      "landÄ±r": 1164,
      "Ġkit": 1165,
      "tik": 1166,
      "Ġ193": 1167,
      "ĠRom": 1168,
      "Ġdil": 1169,
      "Ġmerkezine": 1170,
      "leÅŁik": 1171,
      "ĠÄ°ngiliz": 1172,
      "ĠEk": 1173,
      "ĠÃĸz": 1174,
      "inal": 1175,
      "asÄ±na": 1176,
      "tar": 1177,
      "Ġmad": 1178,
      "ĠtÃ¼m": 1179,
      "ĠvardÄ±r": 1180,
      "Ġayr": 1181,
      "lanan": 1182,
      "orum": 1183,
      "luÄŁu": 1184,
      "ĠyÃ¼ksek": 1185,
      "of": 1186,
      "Ãĩ": 1187,
      "alan": 1188,
      "lerine": 1189,
      "urg": 1190,
      "ĠAt": 1191,
      "ĠÃ¶r": 1192,
      "ug": 1193,
      "ĠÃ¼zerine": 1194,
      "larÄ±ndan": 1195,
      "Tarih": 1196,
      "ĠAÄŁ": 1197,
      "son": 1198,
      "Ġerk": 1199,
      "ĠÃ¶ÄŁren": 1200,
      "Ã§Ä±": 1201,
      "pan": 1202,
      "Ġsal": 1203,
      "âĢĿ": 1204,
      "ĠÃ¼st": 1205,
      "Ã¼ne": 1206,
      "lendir": 1207,
      "Ġsanat": 1208,
      "kara": 1209,
      "ros": 1210,
      "ell": 1211,
      "oh": 1212,
      "Ġ12": 1213,
      "Ã¼Ã§Ã¼k": 1214,
      "ĠyapÄ±lan": 1215,
      "Ä±lmÄ±ÅŁ": 1216,
      "sal": 1217,
      "Ġsiyas": 1218,
      "lerinden": 1219,
      "asar": 1220,
      "Ġsonr": 1221,
      "Ġtamam": 1222,
      "mÃ¼ÅŁ": 1223,
      "ĠÃľniversitesi": 1224,
      "ĠbazÄ±": 1225,
      "Ġkabul": 1226,
      "ÄŁini": 1227,
      "Ġilg": 1228,
      "Ġmahall": 1229,
      "Ã»": 1230,
      "Al": 1231,
      "Ġanlam": 1232,
      "siyon": 1233,
      "Ġyazar": 1234,
      "ĠÃ¶nce": 1235,
      "ĠÃ§Ä±kar": 1236,
      "ost": 1237,
      "Ġancak": 1238,
      "ĠII": 1239,
      "ĠâĢľ": 1240,
      "ĠAmerikalÄ±": 1241,
      "Ġgrup": 1242,
      "ĠsÃ¶y": 1243,
      "Ä±nÄ±r": 1244,
      "ĠÅŁekilde": 1245,
      "Ġdevam": 1246,
      "vet": 1247,
      "Ġfaz": 1248,
      "ĠbirÃ§ok": 1249,
      "Ġdevlet": 1250,
      "ern": 1251,
      "ton": 1252,
      "ĠÄ°m": 1253,
      "ĠÃĸdÃ¼lÃ¼": 1254,
      "itim": 1255,
      "aret": 1256,
      "ĠolduÄŁunu": 1257,
      "Ġtut": 1258,
      "ĠCumhur": 1259,
      "Ġdol": 1260,
      "kÄ±": 1261,
      "aÅŁtÄ±r": 1262,
      "ali": 1263,
      "meye": 1264,
      "ĠPr": 1265,
      "Ġkez": 1266,
      "197": 1267,
      "ĠÃ¼zere": 1268,
      "ĠIn": 1269,
      "ucu": 1270,
      "ĊĠ": 1271,
      "muÅŁtur": 1272,
      "ÄŁÃ¼": 1273,
      "ĠMart": 1274,
      "akat": 1275,
      "Ġolmak": 1276,
      "ĠPar": 1277,
      "oÄŁrafya": 1278,
      "unan": 1279,
      "lim": 1280,
      "illÃ®": 1281,
      "si": 1282,
      "ord": 1283,
      "Ġbit": 1284,
      "gan": 1285,
      "ron": 1286,
      "ĠKur": 1287,
      "ĠuzaklÄ±k": 1288,
      "ĠolmuÅŁtur": 1289,
      "elen": 1290,
      "BD": 1291,
      "atik": 1292,
      "ĠMay": 1293,
      "Ġilinin": 1294,
      "Ġ14": 1295,
      "duÄŁu": 1296,
      "enz": 1297,
      "ĠÃ¶nc": 1298,
      "10": 1299,
      "ation": 1300,
      "Ġter": 1301,
      "aber": 1302,
      "landÄ±": 1303,
      "Ġharek": 1304,
      "ĠbaÅŁar": 1305,
      "ina": 1306,
      "Ġkan": 1307,
      "ĠTem": 1308,
      "Ġisim": 1309,
      "Ġiz": 1310,
      "ĠHar": 1311,
      "izm": 1312,
      "ĠalÄ±n": 1313,
      "Ġand": 1314,
      "arasÄ±": 1315,
      "ĠSavaÅŁÄ±": 1316,
      "lus": 1317,
      "NÃ¼fus": 1318,
      "iÅŁk": 1319,
      "ĠgÃ¶z": 1320,
      "ĠÅŁeh": 1321,
      "ĠBirleÅŁik": 1322,
      "layan": 1323,
      "Ġiyi": 1324,
      "onom": 1325,
      "ĠkadÄ±n": 1326,
      "ĠBel": 1327,
      "Ġlist": 1328,
      "An": 1329,
      "yal": 1330,
      "Ġuzun": 1331,
      "dÄ±ndan": 1332,
      "ni": 1333,
      "ocuk": 1334,
      "Ġ13": 1335,
      "ĠKup": 1336,
      "inc": 1337,
      "|-": 1338,
      "ĠÃ¼n": 1339,
      "'s": 1340,
      "21": 1341,
      "ert": 1342,
      "ĠHaz": 1343,
      "lÃ¼l": 1344,
      "ĠÃ§eÅŁit": 1345,
      "Ġkendi": 1346,
      "Ã¼ltÃ¼r": 1347,
      "ebilir": 1348,
      "ĠgeÃ§ir": 1349,
      "ĠgÃ¼Ã§": 1350,
      "CoÄŁrafya": 1351,
      "ork": 1352,
      "ÄŁÄ±nÄ±": 1353,
      "ĠEl": 1354,
      "Ġgenel": 1355,
      "ĠKral": 1356,
      "Ġtel": 1357,
      "ĠyaklaÅŁ": 1358,
      "aÅŁa": 1359,
      "KÃ¶y": 1360,
      "ĠÃ¼zerinde": 1361,
      "ĠAd": 1362,
      "ĠPro": 1363,
      "bet": 1364,
      "ale": 1365,
      "ĠAb": 1366,
      "iran": 1367,
      "Ġerkek": 1368,
      "ĠhÃ¼k": 1369,
      "las": 1370,
      "Ġkes": 1371,
      "ĠKas": 1372,
      "ĠÅŁehir": 1373,
      "ĠSon": 1374,
      "Ġmod": 1375,
      "ĠyaÅŁam": 1376,
      "isinde": 1377,
      "ret": 1378,
      "yet": 1379,
      "Amerik": 1380,
      "ĠdÃ¼ÅŁÃ¼n": 1381,
      "Ġsat": 1382,
      "Ġsin": 1383,
      "fer": 1384,
      "Ġgit": 1385,
      "ĠfarklÄ±": 1386,
      "rar": 1387,
      "rist": 1388,
      "Ġgrub": 1389,
      "ĠmÃ¼zik": 1390,
      "adece": 1391,
      "ĠBey": 1392,
      "ĠuzaklÄ±ktadÄ±r": 1393,
      "Ġeden": 1394,
      "Ġsu": 1395,
      "ess": 1396,
      "ĠÄ°mparator": 1397,
      "Ã¼v": 1398,
      "tu": 1399,
      "ĠLe": 1400,
      "Ġikinci": 1401,
      "ĠparÃ§": 1402,
      "azet": 1403,
      "Ġtur": 1404,
      "Ġdir": 1405,
      "ĠEs": 1406,
      "gel": 1407,
      "Ä±p": 1408,
      "lak": 1409,
      "ĠgÃ¶rÃ¼l": 1410,
      "TarihÃ§e": 1411,
      "ĠABD": 1412,
      "ici": 1413,
      "Ay": 1414,
      "ĠyerleÅŁ": 1415,
      "Ġfazla": 1416,
      "ĠAnkara": 1417,
      "17": 1418,
      "ĠHal": 1419,
      "Ġ'": 1420,
      "Ã¼b": 1421,
      "gÃ¼n": 1422,
      "Ġkol": 1423,
      "Ġbin": 1424,
      "ilerin": 1425,
      "Ġfilmler": 1426,
      "ĠBur": 1427,
      "iyeti": 1428,
      "Ġtah": 1429,
      "gram": 1430,
      "ĠyakÄ±n": 1431,
      "196": 1432,
      "ĠAyrÄ±ca": 1433,
      "15": 1434,
      "anÄ±n": 1435,
      "ĠkiÅŁi": 1436,
      "pr": 1437,
      "aat": 1438,
      "ĠSh": 1439,
      "ĠAncak": 1440,
      "Ġ%": 1441,
      "ĠyÄ±lÄ±": 1442,
      "muÅŁ": 1443,
      "Ä±t": 1444,
      "ou": 1445,
      "eor": 1446,
      "Ġortaya": 1447,
      "lÃ¼k": 1448,
      "ĠBÃ¶l": 1449,
      "ĠulaÅŁ": 1450,
      "Ġsor": 1451,
      "ektÃ¶r": 1452,
      "net": 1453,
      "lerden": 1454,
      "ĠÃ¶zel": 1455,
      "erb": 1456,
      "muz": 1457,
      "Ġboyun": 1458,
      "ĠgeliÅŁ": 1459,
      "Ġgeri": 1460,
      "ĠeÅŁ": 1461,
      "ĠMayÄ±s": 1462,
      "ĠdoÄŁru": 1463,
      "land": 1464,
      "kÃ¼": 1465,
      "undan": 1466,
      "anan": 1467,
      "Ġzor": 1468,
      "per": 1469,
      "adÄ±ÄŁÄ±": 1470,
      "Ġuygul": 1471,
      "ĠBil": 1472,
      "oÄŁun": 1473,
      "Ġeser": 1474,
      "ĠEylÃ¼l": 1475,
      "ĠMan": 1476,
      "br": 1477,
      "ĠardÄ±ndan": 1478,
      "Ã¼mÃ¼z": 1479,
      "ĠKupasÄ±": 1480,
      "eniz": 1481,
      "Ġpol": 1482,
      "ry": 1483,
      "Ã¼nÃ¼n": 1484,
      "larla": 1485,
      "ĠsÄ±nÄ±r": 1486,
      "ĠkÃ¼Ã§Ã¼k": 1487,
      "Ġrol": 1488,
      "Ġitib": 1489,
      "Ġyard": 1490,
      "lin": 1491,
      "ayÄ±n": 1492,
      "oman": 1493,
      "ava": 1494,
      "oÅŁ": 1495,
      "Ġasker": 1496,
      "ĠĠĠĠĠĠĠĠ": 1497,
      "uvvet": 1498,
      "Ġ2008": 1499,
      "asÄ±nÄ±n": 1500,
      "Ġolup": 1501,
      "ĠHan": 1502,
      "ĠnÃ¼fus": 1503,
      "Ä°n": 1504,
      "etim": 1505,
      "ĠTh": 1506,
      "eyen": 1507,
      "ĠsÄ±": 1508,
      "yo": 1509,
      "Ä±lmasÄ±": 1510,
      "ĠsÄ±rasÄ±nda": 1511,
      "ĠÄ°tal": 1512,
      "ĠKom": 1513,
      "iyan": 1514,
      "ilmesi": 1515,
      "Ġark": 1516,
      "aktadÄ±r": 1517,
      "isan": 1518,
      "lama": 1519,
      "ĠkÄ±z": 1520,
      "Ġ2007": 1521,
      "ĠTr": 1522,
      "Ġart": 1523,
      "ĠsayÄ±": 1524,
      "Ġ2006": 1525,
      "ĠFransÄ±z": 1526,
      "eme": 1527,
      "12": 1528,
      "ĠbulunmaktadÄ±r": 1529,
      "tiv": 1530,
      "ian": 1531,
      "ĠKan": 1532,
      "ĠuÃ§": 1533,
      "lardÄ±r": 1534,
      "Ä±rak": 1535,
      "oÄŁlu": 1536,
      "ĠAm": 1537,
      "ĠÅŀampiyon": 1538,
      "ĠAf": 1539,
      "ĠMil": 1540,
      "lararasÄ±": 1541,
      "Ġhat": 1542,
      "Ġsadece": 1543,
      "Ä±sÄ±nda": 1544,
      "Ġfor": 1545,
      "ĠKasÄ±m": 1546,
      "ustos": 1547,
      "Ġ:": 1548,
      "âĢĵ": 1549,
      "Ġsen": 1550,
      "und": 1551,
      "ĠkayÄ±": 1552,
      "ĠdeÄŁer": 1553,
      "16": 1554,
      "Ġsev": 1555,
      "Ã¼sÃ¼": 1556,
      "ĠOcak": 1557,
      "Ġem": 1558,
      "Ġgol": 1559,
      "ĠHaziran": 1560,
      "Ġhareket": 1561,
      "med": 1562,
      "ĠEkim": 1563,
      "Ġilgili": 1564,
      "ĠOyun": 1565,
      "ĠFilm": 1566,
      "abil": 1567,
      "yÄ±": 1568,
      "Ġyen": 1569,
      "asÄ±ndaki": 1570,
      "gu": 1571,
      "qu": 1572,
      "tÄ±ÄŁÄ±": 1573,
      "enk": 1574,
      "ĠtanÄ±m": 1575,
      "tor": 1576,
      "ĠÃ¶len": 1577,
      "Ġhaz": 1578,
      "eviz": 1579,
      "Ã¶yle": 1580,
      "Ã¶rt": 1581,
      "ilmektedir": 1582,
      "onya": 1583,
      "tiÄŁi": 1584,
      "alet": 1585,
      "oloji": 1586,
      "ĠÃ§eÅŁitli": 1587,
      "ĠTemmuz": 1588,
      "14": 1589,
      "Ġer": 1590,
      "ĠiliÅŁk": 1591,
      "sik": 1592,
      "ĠÄ°yi": 1593,
      "Ġyok": 1594,
      "th": 1595,
      "Ġkarar": 1596,
      "masÄ±nÄ±": 1597,
      "Ġkaynak": 1598,
      "Ġtab": 1599,
      "Ġbur": 1600,
      "ĠbÄ±rak": 1601,
      "ĠhÄ±z": 1602,
      "ĠGal": 1603,
      "deÅŁ": 1604,
      "Ġduy": 1605,
      "Ġhakk": 1606,
      "ĠgÃ¶rÃ¼n": 1607,
      "Ġbilim": 1608,
      "ĠMÃ¼z": 1609,
      "gin": 1610,
      "Ä±lm": 1611,
      "emi": 1612,
      "Ġkarak": 1613,
      "ĠdÃ¼n": 1614,
      "Ġtopl": 1615,
      "masÄ±na": 1616,
      "ova": 1617,
      "ĠyayÄ±m": 1618,
      "arb": 1619,
      "Ġedildi": 1620,
      "ari": 1621,
      "can": 1622,
      "Ã¼nden": 1623,
      "eral": 1624,
      "ign": 1625,
      "ond": 1626,
      "our": 1627,
      "Ġw": 1628,
      "itik": 1629,
      "Ä±nÄ±z": 1630,
      "ĠÃ§evr": 1631,
      "ĠÄ°lk": 1632,
      "ubat": 1633,
      "esinden": 1634,
      "TÃ¼rkiye": 1635,
      "ĠdeÄŁil": 1636,
      "Ġeder": 1637,
      "ser": 1638,
      "lÃ¼m": 1639,
      "ind": 1640,
      "Ã¶k": 1641,
      "ĠAÄŁustos": 1642,
      "Ġtes": 1643,
      "Ä±nÄ±f": 1644,
      "ĠBak": 1645,
      "tif": 1646,
      "Ġ2009": 1647,
      "mir": 1648,
      "kanÄ±": 1649,
      "AyrÄ±ca": 1650,
      "Ġkurulan": 1651,
      "ĠAmerika": 1652,
      "Ġede": 1653,
      "ĠBÃ¼yÃ¼k": 1654,
      "Ġboyunca": 1655,
      "ver": 1656,
      "Ġsan": 1657,
      "Ġhalk": 1658,
      "iyor": 1659,
      "iyatro": 1660,
      "ĠNisan": 1661,
      "yalÄ±": 1662,
      "esiyle": 1663,
      "Ġhayat": 1664,
      "enler": 1665,
      "ĠsÃ¼re": 1666,
      "ĠmillÃ®": 1667,
      "ie": 1668,
      "Ġyeniden": 1669,
      "ack": 1670,
      "siz": 1671,
      "arl": 1672,
      "ĠgÃ¶n": 1673,
      "Ġnedeniyle": 1674,
      "Ġ2005": 1675,
      "ank": 1676,
      "Ġbenz": 1677,
      "gÄ±": 1678,
      "ĠAralÄ±k": 1679,
      "ĠYunan": 1680,
      "Ġ11": 1681,
      "Ã¼tÃ¼n": 1682,
      "ĠsÄ±k": 1683,
      "ime": 1684,
      "asÄ±nÄ±": 1685,
      "Ġ.": 1686,
      "Ġail": 1687,
      "ĠPaÅŁa": 1688,
      "Ġmuh": 1689,
      "Ġprogram": 1690,
      "Ġkuzey": 1691,
      "ars": 1692,
      "ince": 1693,
      "ĠyardÄ±m": 1694,
      "\",": 1695,
      "ĠÃ§ocuk": 1696,
      "ĠyarÄ±ÅŁ": 1697,
      "Ġbilg": 1698,
      "ĠgeliÅŁtir": 1699,
      "izmet": 1700,
      "ĠolmasÄ±": 1701,
      "Ã¼ncÃ¼": 1702,
      "ema": 1703,
      "ĠHer": 1704,
      "Ġada": 1705,
      "rans": 1706,
      "ĠNew": 1707,
      "Bu": 1708,
      "estek": 1709,
      "ĠMuh": 1710,
      "Ġsiyaset": 1711,
      "FA": 1712,
      "Ġzamanda": 1713,
      "ĠgeniÅŁ": 1714,
      "Ġolur": 1715,
      "ĠyaptÄ±ÄŁÄ±": 1716,
      "ĠDevletleri": 1717,
      "itesi": 1718,
      "osyal": 1719,
      "Ġey": 1720,
      "ĠÅŁir": 1721,
      "ĠAlmanya": 1722,
      "lenen": 1723,
      "isinin": 1724,
      "ore": 1725,
      "Ġili": 1726,
      "ohn": 1727,
      "malarÄ±": 1728,
      "Ġhas": 1729,
      "ĠsaldÄ±r": 1730,
      "Ġ0": 1731,
      "tin": 1732,
      "Ġses": 1733,
      "yum": 1734,
      "ĠeÄŁitim": 1735,
      "YaÅŁ": 1736,
      "ĠÃ¶lÃ¼m": 1737,
      "ĠyaklaÅŁÄ±k": 1738,
      "evizyon": 1739,
      "sil": 1740,
      "imleri": 1741,
      "ock": 1742,
      "Ġyerine": 1743,
      "Ġ/": 1744,
      "ĠanlaÅŁ": 1745,
      "ĠoÄŁ": 1746,
      "ĠbaÅŁlam": 1747,
      "50": 1748,
      "ovyet": 1749,
      "Ġait": 1750,
      "ang": 1751,
      "Ġtarihi": 1752,
      "ĠÃ¶dÃ¼l": 1753,
      "áĥ": 1754,
      "Ġfilmleri": 1755,
      "ĠDaha": 1756,
      "ĠhazÄ±r": 1757,
      "isini": 1758,
      "ĠÃ¶lenler": 1759,
      "ĠraÄŁ": 1760,
      "Ġedilen": 1761,
      "Ã§iler": 1762,
      "Ġyas": 1763,
      "ĠmÃ¼": 1764,
      "Ġmak": 1765,
      "ĠkayÄ±t": 1766,
      "ĠRoma": 1767,
      "pe": 1768,
      "Ġteknik": 1769,
      "ĠKal": 1770,
      "baÅŁ": 1771,
      "leme": 1772,
      "ĠÅŀubat": 1773,
      "usunda": 1774,
      "det": 1775,
      "ĠAh": 1776,
      "Ġdef": 1777,
      "=\"": 1778,
      "Ġgazet": 1779,
      "ĠÃ¶ldÃ¼r": 1780,
      "Ġot": 1781,
      "Ġonun": 1782,
      "13": 1783,
      "urt": 1784,
      "ĠraÄŁmen": 1785,
      "Ġ=": 1786,
      "air": 1787,
      "ĠMah": 1788,
      "Ä±klarÄ±": 1789,
      "ĠOk": 1790,
      "ĠgÃ¼ney": 1791,
      "Ġinsanlar": 1792,
      "ĠtakÄ±mÄ±": 1793,
      "Ġbab": 1794,
      "illi": 1795,
      "ÄŁin": 1796,
      "mÃ¼ÅŁtÃ¼r": 1797,
      "ĠbakÄ±nÄ±z": 1798,
      "ite": 1799,
      "Ġst": 1800,
      "ph": 1801,
      "Ar": 1802,
      "Ġtak": 1803,
      "ĠyÄ±llarÄ±": 1804,
      "isine": 1805,
      "ĠdaÄŁ": 1806,
      "Ġtekrar": 1807,
      "luÄŁ": 1808,
      "ĠaltÄ±nda": 1809,
      "Ġ2010": 1810,
      "io": 1811,
      "ĠDer": 1812,
      "Ã¼lt": 1813,
      "Ġdem": 1814,
      "Ġmev": 1815,
      "elerin": 1816,
      "Bir": 1817,
      "ĠSan": 1818,
      "Ġberi": 1819,
      "Ġdestek": 1820,
      "ren": 1821,
      "ekiz": 1822,
      "adolu": 1823,
      "arÄ±ÅŁ": 1824,
      "22": 1825,
      "Ġtoplam": 1826,
      "Ġhaf": 1827,
      "aj": 1828,
      "Ġcan": 1829,
      "gÄ±n": 1830,
      "Ġolduk": 1831,
      "Ãľ": 1832,
      "Ġseb": 1833,
      "ĠKad": 1834,
      "dam": 1835,
      "Ġu": 1836,
      "Ġdin": 1837,
      "ĠUlus": 1838,
      "Ġboy": 1839,
      "Ġif": 1840,
      "ĠTek": 1841,
      "imler": 1842,
      "ĠyapÄ±": 1843,
      "ate": 1844,
      "ĠSel": 1845,
      "tÄ±n": 1846,
      "esel": 1847,
      "Ġmez": 1848,
      "ediy": 1849,
      "nek": 1850,
      "ĠkÄ±sa": 1851,
      "ĠkuÅŁ": 1852,
      "ograf": 1853,
      "ĠilÃ§e": 1854,
      "ĠÅŁampiyon": 1855,
      "Ġdik": 1856,
      "spor": 1857,
      "Ġ2004": 1858,
      "ĠYah": 1859,
      "Ġulus": 1860,
      "min": 1861,
      "ĠDem": 1862,
      "Ġber": 1863,
      "lis": 1864,
      "Ġdah": 1865,
      "ĠFransa": 1866,
      "Ġsil": 1867,
      "Ġkarakter": 1868,
      "lo": 1869,
      "ĠsÄ±nÄ±f": 1870,
      "ĠAli": 1871,
      "ĠdÃ¶nÃ¼ÅŁ": 1872,
      "ĠPart": 1873,
      "Ġkav": 1874,
      "ĠTur": 1875,
      "dik": 1876,
      "Ġkr": 1877,
      "Ã»met": 1878,
      "ize": 1879,
      "Ã¼ven": 1880,
      "ĠgÃ¶nder": 1881,
      "gen": 1882,
      "ha": 1883,
      "ĠTop": 1884,
      "Ġsav": 1885,
      "ĠX": 1886,
      "ĠkÃ¼ltÃ¼r": 1887,
      "ĠaraÅŁtÄ±r": 1888,
      "Ġhizmet": 1889,
      "ĠyÃ¼zyÄ±lda": 1890,
      "els": 1891,
      "ĠkÄ±r": 1892,
      "adel": 1893,
      "Ä°s": 1894,
      "ĠkonuÅŁ": 1895,
      "ledi": 1896,
      "Ġkitap": 1897,
      "ĠdeÄŁiÅŁtir": 1898,
      "ift": 1899,
      "Ġtoprak": 1900,
      "ĠPol": 1901,
      "Ġ30": 1902,
      "alt": 1903,
      "ĠadÄ±yla": 1904,
      "udi": 1905,
      "ĠbaÅŁka": 1906,
      "ĠhiÃ§": 1907,
      "Ġdok": 1908,
      "En": 1909,
      "Ä±lmaktadÄ±r": 1910,
      "uluk": 1911,
      "Ġkor": 1912,
      "lerle": 1913,
      "194": 1914,
      "ĠÄ°z": 1915,
      "ĠÐ": 1916,
      "sam": 1917,
      "sÄ±": 1918,
      "Ġgeldi": 1919,
      "iya": 1920,
      "ĠAz": 1921,
      "Ġdav": 1922,
      "Ġelde": 1923,
      "ultan": 1924,
      "ĠÄ°span": 1925,
      "tem": 1926,
      "alle": 1927,
      "ĠkarÅŁÄ±l": 1928,
      "Ġnok": 1929,
      "Ġmilyon": 1930,
      "tere": 1931,
      "ga": 1932,
      "okr": 1933,
      "Ġbelde": 1934,
      "mayÄ±": 1935,
      "Ä±ÅŁÄ±": 1936,
      "ĠAnadolu": 1937,
      "ith": 1938,
      "aban": 1939,
      "Ġroman": 1940,
      "ĠJohn": 1941,
      "ĠGÃ¼ney": 1942,
      "Ġgiy": 1943,
      "ĠyÃ¼r": 1944,
      "ami": 1945,
      "ĠSovyet": 1946,
      "azar": 1947,
      "tay": 1948,
      "ĠBunun": 1949,
      "ĠyÃ¼ksel": 1950,
      "Ġplan": 1951,
      "Ġ2000": 1952,
      "Ġgelir": 1953,
      "eÅŁtir": 1954,
      "ins": 1955,
      "ach": 1956,
      "Ġkim": 1957,
      "int": 1958,
      "este": 1959,
      "Ġbelirt": 1960,
      "ĠÃ§Ä±kan": 1961,
      "195": 1962,
      "lanmÄ±ÅŁtÄ±r": 1963,
      "Ġbulunur": 1964,
      "kaÃ§": 1965,
      "uyla": 1966,
      "ĠGÃ¼r": 1967,
      "gar": 1968,
      "evi": 1969,
      "fi": 1970,
      "Ġun": 1971,
      "ĠKuzey": 1972,
      "Ġelekt": 1973,
      "ĠdÃ¶rt": 1974,
      "Ġolay": 1975,
      "ĠbiÃ§": 1976,
      "ĠgeÃ§en": 1977,
      "cel": 1978,
      "ĠBirliÄŁi": 1979,
      "Ġtasar": 1980,
      "Ġkonu": 1981,
      "ÄŁÄ±nda": 1982,
      "Ġav": 1983,
      "ĠÅŁarkÄ±cÄ±": 1984,
      "rim": 1985,
      "Ġdal": 1986,
      "ĠCumhuriyeti": 1987,
      "ĠkÄ±sm": 1988,
      "ĠalÄ±r": 1989,
      "ĠyapÄ±m": 1990,
      "Ġfinal": 1991,
      "mam": 1992,
      "omb": 1993,
      "ĠhakkÄ±nda": 1994,
      "ilis": 1995,
      "ĠaÄŁÄ±r": 1996,
      "Ã¼ler": 1997,
      "ĠkaÃ§": 1998,
      "iir": 1999,
      "11": 2000,
      "meni": 2001,
      "Ġ190": 2002,
      "ĠkullanÄ±lan": 2003,
      "Ġtemel": 2004,
      "iyordu": 2005,
      "30": 2006,
      "Ġbey": 2007,
      "akÃ¼lt": 2008,
      "Ġmey": 2009,
      "ekli": 2010,
      "Ġberaber": 2011,
      "ĠkÃ¶yleri": 2012,
      "isyon": 2013,
      "ĠHol": 2014,
      "Ä±lÄ±m": 2015,
      "ana": 2016,
      "orn": 2017,
      "ĠEv": 2018,
      "ĠKat": 2019,
      "ĠgÃ¶rÃ¼ÅŁ": 2020,
      "aren": 2021,
      "ĠinÅŁ": 2022,
      "ck": 2023,
      "ĠMerkez": 2024,
      "din": 2025,
      "Ġ2002": 2026,
      "lk": 2027,
      "elerde": 2028,
      "alya": 2029,
      "adaÅŁ": 2030,
      "Ä±msÄ±z": 2031,
      "ile": 2032,
      "Ġekonom": 2033,
      "ĠMeh": 2034,
      "dana": 2035,
      "ĠÄ°mparatorluÄŁu": 2036,
      "Ġkariy": 2037,
      "ĠDoÄŁu": 2038,
      "Ã¼dÃ¼r": 2039,
      "Ä°ngil": 2040,
      "Ġkuvvet": 2041,
      "Ġtelevizyon": 2042,
      "Ġdeniz": 2043,
      "cÄ±sÄ±": 2044,
      "ĠAvus": 2045,
      "Ġ25": 2046,
      "mem": 2047,
      "Ġfutbolcular": 2048,
      "ĠÅŁehr": 2049,
      "ĠDeniz": 2050,
      "ĠgiriÅŁ": 2051,
      "Ġoran": 2052,
      "biyat": 2053,
      "Ġmerkezi": 2054,
      "ideo": 2055,
      "Ġ2003": 2056,
      "ĠBay": 2057,
      "Ġele": 2058,
      "ĠSch": 2059,
      "ĠarasÄ±ndaki": 2060,
      "Ġsahiptir": 2061,
      "Ġ&": 2062,
      "ĠÃ¶zellikle": 2063,
      "Ġkent": 2064,
      "Ġper": 2065,
      "cusu": 2066,
      "Ġsonunda": 2067,
      "Ä±ktan": 2068,
      "ĠRe": 2069,
      "anÄ±t": 2070,
      "ĠÃ§iz": 2071,
      "Ġonu": 2072,
      "bi": 2073,
      "ĠoluÅŁan": 2074,
      "ary": 2075,
      "ĠÅŁirket": 2076,
      "ĠBas": 2077,
      "fes": 2078,
      "Ġspor": 2079,
      "aw": 2080,
      "ĠbaÅŁkan": 2081,
      "ĠÄ°k": 2082,
      "trol": 2083,
      "eda": 2084,
      "Ġdahil": 2085,
      "lerdir": 2086,
      "ĠKÄ±z": 2087,
      "Ġid": 2088,
      "ĠDan": 2089,
      "Ġbah": 2090,
      "Ġsahipleri": 2091,
      "Ġanlat": 2092,
      "ĠOn": 2093,
      "ĠdÃ¼nya": 2094,
      "Ġgenellikle": 2095,
      "Ġmal": 2096,
      "ij": 2097,
      "ĠBul": 2098,
      "ĠYeni": 2099,
      "ĠkÃ¶ydÃ¼r": 2100,
      "Ġama": 2101,
      "Ġnum": 2102,
      "ĠalmÄ±ÅŁtÄ±r": 2103,
      "azi": 2104,
      "ĠkazandÄ±": 2105,
      "YaÅŁayan": 2106,
      "II": 2107,
      "Ġverdi": 2108,
      "Ġtrans": 2109,
      "ong": 2110,
      "Ġana": 2111,
      "osu": 2112,
      "ĠbÃ¼tÃ¼n": 2113,
      "ĠRes": 2114,
      "ĠsonuÃ§": 2115,
      "Ġimz": 2116,
      "ĠSer": 2117,
      "olojik": 2118,
      "ĠBer": 2119,
      "ĠJap": 2120,
      "ĠMa": 2121,
      "lor": 2122,
      "her": 2123,
      "isk": 2124,
      "sun": 2125,
      "adem": 2126,
      "Ä±sÄ±r": 2127,
      "ĠdeÄŁiÅŁik": 2128,
      "Ġsonucu": 2129,
      "23": 2130,
      "ĠdirektÃ¶r": 2131,
      "Ġne": 2132,
      "ĠadlandÄ±r": 2133,
      "ĠSanat": 2134,
      "ĠayrÄ±ca": 2135,
      "ĠoÄŁlu": 2136,
      "vek": 2137,
      "ĠGenel": 2138,
      "ĠgerÃ§ekleÅŁtir": 2139,
      "ĠYayÄ±n": 2140,
      "anlar": 2141,
      "ukuk": 2142,
      "ĠyÃ¶netim": 2143,
      "ika": 2144,
      "ick": 2145,
      "Ġmes": 2146,
      "Ġsun": 2147,
      "ĠÃ§alÄ±ÅŁmalar": 2148,
      "ĠdÃ¶neminde": 2149,
      "ire": 2150,
      "ĠÃ§Ä±ktÄ±": 2151,
      "The": 2152,
      "rosu": 2153,
      "ĠÃ§aÄŁ": 2154,
      "efer": 2155,
      "ĠÃ¶zellik": 2156,
      "eci": 2157,
      "):": 2158,
      "ff": 2159,
      "Ð°": 2160,
      "Ġitibaren": 2161,
      "otor": 2162,
      "Ġkomut": 2163,
      "Ä±cÄ±": 2164,
      "ĠTan": 2165,
      "limp": 2166,
      "ĠÄ°ÅŁ": 2167,
      "Ġbilinen": 2168,
      "ĠdÃ¼ny": 2169,
      "ĠÃĩin": 2170,
      "ynÄ±": 2171,
      "ly": 2172,
      "ĠsÄ±rada": 2173,
      "izik": 2174,
      "iss": 2175,
      "Ġord": 2176,
      "ĠDav": 2177,
      "Ġ2011": 2178,
      "ĠbirkaÃ§": 2179,
      "ĠFakÃ¼lt": 2180,
      "Ġdur": 2181,
      "Ġdayan": 2182,
      "eder": 2183,
      "ĠÅŁey": 2184,
      "SB": 2185,
      "Ġetmek": 2186,
      "Kar": 2187,
      "afa": 2188,
      "ĠÃ¶lÃ§": 2189,
      "ue": 2190,
      "ĠkardeÅŁ": 2191,
      "ĠEm": 2192,
      "ĠarkadaÅŁ": 2193,
      "Ä±lÄ±ÄŁÄ±": 2194,
      "Ä±ldÄ±ÄŁÄ±": 2195,
      "Ġman": 2196,
      "ĠasÄ±l": 2197,
      "ĠÅŁekl": 2198,
      "Ġverilen": 2199,
      "Ã¼cadel": 2200,
      "lek": 2201,
      "rol": 2202,
      "lanmÄ±ÅŁ": 2203,
      "ĠuÄŁr": 2204,
      "ulan": 2205,
      "co": 2206,
      "ĠKÄ±r": 2207,
      "for": 2208,
      "lav": 2209,
      "ĠbeÅŁ": 2210,
      "istik": 2211,
      "ĠUn": 2212,
      "ji": 2213,
      "Ġedilir": 2214,
      "Ġkitab": 2215,
      "ĠSar": 2216,
      "lendi": 2217,
      "ĠHay": 2218,
      "asyonu": 2219,
      "ĠyÄ±lÄ±ndan": 2220,
      "Ġ24": 2221,
      "ĠkÄ±y": 2222,
      "ĠsanatÃ§Ä±": 2223,
      "Ġbun": 2224,
      "ĠdÃ¶nemde": 2225,
      "Ġbirbir": 2226,
      "ediye": 2227,
      "Ġsezonunda": 2228,
      "ĠHas": 2229,
      "ĠLis": 2230,
      "Ġinan": 2231,
      "elerinde": 2232,
      "Ġadam": 2233,
      "Ġsilah": 2234,
      "veÃ§": 2235,
      "ĠgÃ¼nÃ¼mÃ¼z": 2236,
      "ĠsaÄŁlam": 2237,
      "Ã¡": 2238,
      "ĠdÄ±ÅŁÄ±nda": 2239,
      "ĠSultan": 2240,
      "ĠKul": 2241,
      "ĠEd": 2242,
      "Ġpat": 2243,
      "ĠadÄ±nÄ±": 2244,
      "ĠYer": 2245,
      "rika": 2246,
      "ĠhÃ¼c": 2247,
      "ĠSin": 2248,
      "cek": 2249,
      "ĠSp": 2250,
      "Ġokul": 2251,
      "Ġpolitik": 2252,
      "Ġmahalleleri": 2253,
      "ĠsÄ±ra": 2254,
      "ĠgenÃ§": 2255,
      "ight": 2256,
      "Ġtemsil": 2257,
      "ketbol": 2258,
      "ĠOlimp": 2259,
      "ft": 2260,
      "ayet": 2261,
      "ĠQ": 2262,
      "ĠPh": 2263,
      "2000": 2264,
      "ĠtaÅŁÄ±m": 2265,
      "to": 2266,
      "Ã¢n": 2267,
      "rom": 2268,
      "isy": 2269,
      "ĠamacÄ±": 2270,
      "asÄ±ndan": 2271,
      "ĠdolayÄ±": 2272,
      "ĠMal": 2273,
      "Ġhav": 2274,
      "letvek": 2275,
      "Ġ21": 2276,
      "Ġhan": 2277,
      "Ġ2012": 2278,
      "oÃ§": 2279,
      "ĠRusya": 2280,
      "neÄŁin": 2281,
      "Ġfa": 2282,
      "ĠPort": 2283,
      "Ġpek": 2284,
      "ĠSal": 2285,
      "mez": 2286,
      "Ġolmayan": 2287,
      "ĠhÃ¼kÃ»met": 2288,
      "aba": 2289,
      "ĠiÅŁlem": 2290,
      "Ġ2001": 2291,
      "suz": 2292,
      "Ġmik": 2293,
      "meler": 2294,
      "atÃ¶r": 2295,
      "leyen": 2296,
      "ĠÄ°ngiltere": 2297,
      "Ġyapan": 2298,
      "ĠkullanÄ±lÄ±r": 2299,
      "Ġgid": 2300,
      "tern": 2301,
      "Ã¼fusu": 2302,
      "ĠÃĸr": 2303,
      "landa": 2304,
      "Ġkalan": 2305,
      "ĠBen": 2306,
      "Ġtoplum": 2307,
      "ris": 2308,
      "ĠMad": 2309,
      "lanÄ±r": 2310,
      "daÅŁ": 2311,
      "maz": 2312,
      "BM": 2313,
      "ĠyerleÅŁim": 2314,
      "ciler": 2315,
      "Ġ23": 2316,
      "ĠDe": 2317,
      "Ġkontrol": 2318,
      "Ġsar": 2319,
      "AmerikalÄ±": 2320,
      "ĠBar": 2321,
      "ĠArap": 2322,
      "anlÄ±ÄŁÄ±": 2323,
      "Ä°ngiliz": 2324,
      "Ġsavun": 2325,
      "dÄ±z": 2326,
      "eth": 2327,
      "ww": 2328,
      "ilim": 2329,
      "60": 2330,
      "aul": 2331,
      "Ġedil": 2332,
      "itan": 2333,
      "ĠRob": 2334,
      "Ã¼cÃ¼": 2335,
      "ĠBun": 2336,
      "ĠbaÄŁÄ±msÄ±z": 2337,
      "sk": 2338,
      "ÄŁinde": 2339,
      "Ġorgan": 2340,
      "ĠEÄŁ": 2341,
      "Av": 2342,
      "taÅŁ": 2343,
      "Ġ22": 2344,
      "Ã¼mÃ¼": 2345,
      "ĠAnd": 2346,
      "Ġiddi": 2347,
      "ĠYork": 2348,
      "ĠKol": 2349,
      "ĠgÃ¶Ã§": 2350,
      "ĠeleÅŁtir": 2351,
      "ĠMac": 2352,
      ".\"": 2353,
      "SBN": 2354,
      "Ġ189": 2355,
      "ĠArt": 2356,
      "Ġfakat": 2357,
      "arlar": 2358,
      "ve": 2359,
      "atan": 2360,
      "emal": 2361,
      "ĠÅŁu": 2362,
      "ĠPartisi": 2363,
      "Er": 2364,
      "iydi": 2365,
      "Ġfilmi": 2366,
      "Ġkel": 2367,
      "ĠOrta": 2368,
      "ĠLa": 2369,
      "ĠAynÄ±": 2370,
      "Ġhemen": 2371,
      "com": 2372,
      "onu": 2373,
      "ĠkaldÄ±": 2374,
      "ĠetmiÅŁtir": 2375,
      "ĠMus": 2376,
      "tÃ¶r": 2377,
      "res": 2378,
      "ĠLigi": 2379,
      "ĠMÃ¼zik": 2380,
      "Ġ100": 2381,
      "vi": 2382,
      "Ġ1999": 2383,
      "iliÄŁi": 2384,
      "ĠBatÄ±": 2385,
      "ĠOlimpiyat": 2386,
      "ĠbiÃ§im": 2387,
      "ĠPer": 2388,
      "lah": 2389,
      "ĠyÄ±ldÄ±z": 2390,
      ".)": 2391,
      "burg": 2392,
      "ĠmÃ¼cadel": 2393,
      "ĠMon": 2394,
      "ĠÅŁark": 2395,
      "ham": 2396,
      "Ġidar": 2397,
      "ĠedilmiÅŁtir": 2398,
      "ĠhÃ¢": 2399,
      "Ġkoy": 2400,
      "193": 2401,
      "olog": 2402,
      "Ġsem": 2403,
      "ĠYÄ±l": 2404,
      "Ġkral": 2405,
      "Ġhayvan": 2406,
      "ĠkuruluÅŁ": 2407,
      "Ġj": 2408,
      "ĠBo": 2409,
      "Ä°stanbul": 2410,
      "Ġpop": 2411,
      "Fran": 2412,
      "ĠyoÄŁun": 2413,
      "ĠbÃ¼y": 2414,
      "ĠKr": 2415,
      "ĠBiz": 2416,
      "amil": 2417,
      "ĠAÅŁ": 2418,
      "Ġmodel": 2419,
      "etmen": 2420,
      "Ġkas": 2421,
      "Ä±ÅŁÄ±k": 2422,
      "Ġkut": 2423,
      "ĠÄ°ngilizce": 2424,
      "nÄ±z": 2425,
      "endi": 2426,
      "ĠTarih": 2427,
      "ĠsÃ¼rdÃ¼r": 2428,
      "ĠyanÄ±": 2429,
      "ĠPet": 2430,
      "ĠBal": 2431,
      "akk": 2432,
      "Ã¶ylece": 2433,
      "Ã¼per": 2434,
      "SS": 2435,
      "Ġboz": 2436,
      "keri": 2437,
      "larÄ±yla": 2438,
      "kÄ±n": 2439,
      "Ġ1990": 2440,
      "Ġtic": 2441,
      "cut": 2442,
      "ĠhÃ¼kÃ¼m": 2443,
      "uan": 2444,
      "alarÄ±nda": 2445,
      "Ġgur": 2446,
      "acaÄŁ": 2447,
      "''": 2448,
      "Ġsinema": 2449,
      "Ġyine": 2450,
      "oks": 2451,
      "one": 2452,
      "alnÄ±z": 2453,
      "yanÄ±n": 2454,
      "ĠÃ¼nlÃ¼": 2455,
      "asa": 2456,
      "ĠbulunduÄŁu": 2457,
      "arp": 2458,
      "ĠHe": 2459,
      "ĠÃ§Ã¶z": 2460,
      "yol": 2461,
      "Ġmahalledir": 2462,
      "ĠSam": 2463,
      "ikÃ¢": 2464,
      "ĠsuÃ§": 2465,
      "ĠÄ°talya": 2466,
      "imar": 2467,
      "Or": 2468,
      "ity": 2469,
      "ĠaltÄ±": 2470,
      "Ġ1998": 2471,
      "ĠgÃ¼ven": 2472,
      "ĠCan": 2473,
      "ĠCom": 2474,
      "hend": 2475,
      "ĠOl": 2476,
      "lÃ¼ÄŁ": 2477,
      "leriyle": 2478,
      "estiv": 2479,
      "Ġyarat": 2480,
      "ĠKit": 2481,
      "sen": 2482,
      "Ġrenk": 2483,
      "Ġtiyatro": 2484,
      "ĠkullanÄ±l": 2485,
      "tion": 2486,
      "ĠÃ¶rnek": 2487,
      "ĠBe": 2488,
      "Ã¼slÃ¼m": 2489,
      "ĠYÃ¶n": 2490,
      "Ġmahalle": 2491,
      "ĠÄ°slam": 2492,
      "alarÄ±n": 2493,
      "ĠISBN": 2494,
      "Ġisimli": 2495,
      "day": 2496,
      "ĠinÅŁa": 2497,
      "red": 2498,
      "rek": 2499,
      "mesine": 2500,
      "ĠÃ¶ldÃ¼": 2501,
      "align": 2502,
      "ĠMet": 2503,
      "Ġsaat": 2504,
      "ĠÄ°ran": 2505,
      "aca": 2506,
      "ĠCo": 2507,
      "ĠkaldÄ±r": 2508,
      "Ġsahibi": 2509,
      "elsef": 2510,
      "ĠMich": 2511,
      "ĠyaygÄ±n": 2512,
      "ĠyaÄŁ": 2513,
      "ĠÃ¶ÄŁrenim": 2514,
      "iyatrosu": 2515,
      "Ã¼zel": 2516,
      "ĠyÃ¶netmen": 2517,
      "ĠÄ°talyan": 2518,
      "Ð¾": 2519,
      "ĠgerÃ§ekleÅŁ": 2520,
      "Ġ27": 2521,
      "BMM": 2522,
      "Ġeyalet": 2523,
      "ĠKÃ¶y": 2524,
      "ĠayrÄ±": 2525,
      "lÃ¼ÄŁÃ¼": 2526,
      "Amerika": 2527,
      "iÅŁim": 2528,
      "Ġtep": 2529,
      "lÄ±ÄŁÄ±nÄ±": 2530,
      "25": 2531,
      "amasÄ±": 2532,
      "ristiyan": 2533,
      "Ġifade": 2534,
      "ĠseÃ§im": 2535,
      "enter": 2536,
      "ahat": 2537,
      "mÃ®": 2538,
      "ai": 2539,
      "Ġtip": 2540,
      "ĠYÃ¼k": 2541,
      "Ġ28": 2542,
      "Ġteor": 2543,
      "liÄŁini": 2544,
      "ĠkeÅŁ": 2545,
      "Ġki": 2546,
      "manÄ±n": 2547,
      "gal": 2548,
      "ĠMÄ±sÄ±r": 2549,
      "Ġnokt": 2550,
      "edik": 2551,
      "ĠSu": 2552,
      "ĠCol": 2553,
      "ĠDr": 2554,
      "ĠaldÄ±ÄŁÄ±": 2555,
      "meyi": 2556,
      "dÄ±n": 2557,
      "ĠKÃ¼r": 2558,
      "Ġsosyal": 2559,
      "ĠCon": 2560,
      "Ġgurbet": 2561,
      "Ġgem": 2562,
      "ĠDoÄŁ": 2563,
      "iÄŁi": 2564,
      "Ġsol": 2565,
      "ĠGir": 2566,
      "eÅŁik": 2567,
      "yle": 2568,
      "ĠyÄ±llarda": 2569,
      "ĠBaÅŁkan": 2570,
      "2008": 2571,
      "emen": 2572,
      "kat": 2573,
      "Ġyat": 2574,
      "itler": 2575,
      "Ġpr": 2576,
      "Ġresmi": 2577,
      "bo": 2578,
      "Ġrad": 2579,
      "Ġdizi": 2580,
      "ĠFen": 2581,
      "Ġiht": 2582,
      "uvar": 2583,
      "ĠgeÃ§ti": 2584,
      "ĠtaÅŁÄ±": 2585,
      "Ġmilletvek": 2586,
      "ĠCar": 2587,
      "ke": 2588,
      "ĠiÃ§erisinde": 2589,
      "Ġ1997": 2590,
      "ive": 2591,
      "Ġmat": 2592,
      "Ä±ldÄ±z": 2593,
      "Ġfaal": 2594,
      "Ġsonuc": 2595,
      "ĠalbÃ¼mÃ¼": 2596,
      "ino": 2597,
      "iri": 2598,
      "ĠTiyatrosu": 2599,
      "ilerek": 2600,
      "ĠnÃ¼fusu": 2601,
      "Ġle": 2602,
      "Ġbek": 2603,
      "Ġ187": 2604,
      "Ġbenzer": 2605,
      "ustafa": 2606,
      "ner": 2607,
      "Ġform": 2608,
      "ood": 2609,
      "ĠÄ°Ã§": 2610,
      "Ã¼ldÃ¼": 2611,
      "illiam": 2612,
      "Ġ26": 2613,
      "ger": 2614,
      "ĠYaz": 2615,
      "2006": 2616,
      "ĠAltÄ±n": 2617,
      "Ġiler": 2618,
      "ediÄŁi": 2619,
      "Ġbat": 2620,
      "ĠAfrika": 2621,
      "Ġsistemi": 2622,
      "arÄ±yla": 2623,
      "mesini": 2624,
      "Ġ1996": 2625,
      "ĠKadÄ±n": 2626,
      "Ġgal": 2627,
      "Ġimparator": 2628,
      "2007": 2629,
      "Ġortak": 2630,
      "Ġe": 2631,
      "ĠFI": 2632,
      "NA": 2633,
      "laÅŁtÄ±r": 2634,
      "Ġprofes": 2635,
      "ĠyaÅŁayan": 2636,
      "Ġ|": 2637,
      "Ġrek": 2638,
      "Ġener": 2639,
      "ier": 2640,
      "elerinin": 2641,
      "Ġadet": 2642,
      "sh": 2643,
      "Ä±rÄ±": 2644,
      "ĠSo": 2645,
      "amÄ±": 2646,
      "ba": 2647,
      "isay": 2648,
      "ĠÃ§ift": 2649,
      "Ġsonraki": 2650,
      "ĠAmerikan": 2651,
      "ĠFakat": 2652,
      "yasÄ±": 2653,
      "ĠSur": 2654,
      "ĠParis": 2655,
      "Ġ1928": 2656,
      "2010": 2657,
      "Ġhava": 2658,
      "Ġnumar": 2659,
      "Ġpart": 2660,
      "ĠFakÃ¼ltesi": 2661,
      "Ã¢r": 2662,
      "ĠamaÃ§": 2663,
      "Ġtransfer": 2664,
      "ĠsÄ±cak": 2665,
      "Ġderg": 2666,
      "Ġ2013": 2667,
      "ĠÅŁeklinde": 2668,
      "bak": 2669,
      "Ã¼nkÃ¼": 2670,
      "asal": 2671,
      "Ġedilm": 2672,
      "Ġkam": 2673,
      "Ð¸": 2674,
      "Alman": 2675,
      "Ġmadd": 2676,
      "ĠkarÅŁÄ±laÅŁ": 2677,
      "enn": 2678,
      "Kon": 2679,
      "Ġ188": 2680,
      "ĠÅŀampiyonasÄ±": 2681,
      "ĠAnt": 2682,
      "kel": 2683,
      "forman": 2684,
      "lenir": 2685,
      "att": 2686,
      "ĠUz": 2687,
      "ĠMec": 2688,
      "nesi": 2689,
      "har": 2690,
      "Ġuyar": 2691,
      "kin": 2692,
      "...": 2693,
      "ĠyapÄ±mÄ±": 2694,
      "ĠNe": 2695,
      "akip": 2696,
      "ĠBÃ¶lg": 2697,
      "ĠtanÄ±n": 2698,
      "Ġto": 2699,
      "kek": 2700,
      "ĠTÃ¼rkÃ§e": 2701,
      "ĠÃ¼yesi": 2702,
      "ĠSen": 2703,
      "ĠyanÄ±nda": 2704,
      "BA": 2705,
      "ĠbabasÄ±": 2706,
      "Ġ1993": 2707,
      "ĠÃ¼yeleri": 2708,
      "ĠEf": 2709,
      "Ġlig": 2710,
      "kil": 2711,
      "Ġ1995": 2712,
      "ĠHam": 2713,
      "Ġoy": 2714,
      "Ġona": 2715,
      "areb": 2716,
      "cular": 2717,
      "ĠyapmÄ±ÅŁtÄ±r": 2718,
      "Ġbulundu": 2719,
      "ĠÅŁiir": 2720,
      "ĠhiÃ§bir": 2721,
      "ĠMÃ¼slÃ¼m": 2722,
      "org": 2723,
      "abancÄ±": 2724,
      "ĠKay": 2725,
      "ĠEur": 2726,
      "Ġmotor": 2727,
      "ĠasÄ±llÄ±": 2728,
      "gÃ¼t": 2729,
      "ĠanlamÄ±na": 2730,
      "Ġmevcut": 2731,
      "24": 2732,
      "ĠGer": 2733,
      "hendis": 2734,
      "str": 2735,
      "ĠTV": 2736,
      "les": 2737,
      "sin": 2738,
      "ĠSa": 2739,
      "Ġuygun": 2740,
      "zon": 2741,
      "gr": 2742,
      "ĠÅŀarkÄ±": 2743,
      "Ġsiyasi": 2744,
      "ean": 2745,
      "Ġbunun": 2746,
      "ĠGr": 2747,
      "ilere": 2748,
      "Ġ1994": 2749,
      "elere": 2750,
      "Ġfaaliyet": 2751,
      "Ġismi": 2752,
      "Ġfil": 2753,
      "lisi": 2754,
      "hangi": 2755,
      "amÄ±ÅŁtÄ±r": 2756,
      "ĠbaÅŁlayan": 2757,
      "ĠKrallÄ±k": 2758,
      "ĠÃ§oÄŁu": 2759,
      "ĠFil": 2760,
      "ĠoldukÃ§a": 2761,
      "Ġre": 2762,
      "Ġ2014": 2763,
      "ĠHristiyan": 2764,
      "Ġbitir": 2765,
      "Ġkonum": 2766,
      "ĠmaÃ§ta": 2767,
      "ĠÃ¼niversit": 2768,
      "arÅŁ": 2769,
      "ahr": 2770,
      "ĠÃ§Ä±kÄ±ÅŁ": 2771,
      "Ġproj": 2772,
      "uklu": 2773,
      "Ġ1992": 2774,
      "dÃ¼k": 2775,
      "ĠkatÄ±ldÄ±": 2776,
      "ĠolmuÅŁ": 2777,
      "ternet": 2778,
      "Ġgrubu": 2779,
      "ĠGrub": 2780,
      "ansÄ±": 2781,
      "ĠKÃ¶": 2782,
      "Ġolabilir": 2783,
      "ĠYap": 2784,
      "kenin": 2785,
      "Ġorta": 2786,
      "ĠbaÅŁarÄ±lÄ±": 2787,
      "ĠMÃĸ": 2788,
      "Ġgirdi": 2789,
      "ĠettiÄŁi": 2790,
      "ski": 2791,
      "Ġ1980": 2792,
      "ĠSÄ±r": 2793,
      "Ġhaline": 2794,
      "ung": 2795,
      "Ġaskeri": 2796,
      "Ġordu": 2797,
      "Ġkaybet": 2798,
      "dem": 2799,
      "ĠDÃ¶n": 2800,
      "ĠÃ¼Ã§Ã¼ncÃ¼": 2801,
      "asaray": 2802,
      "nden": 2803,
      "ise": 2804,
      "2004": 2805,
      "ĠTer": 2806,
      "ĠoyuncularÄ±": 2807,
      "Ġburada": 2808,
      "2005": 2809,
      "ydÄ±": 2810,
      "Ġbasketbol": 2811,
      "ĠyalnÄ±z": 2812,
      "ica": 2813,
      "Ġbiridir": 2814,
      "lad": 2815,
      "ĠTÃ¼m": 2816,
      "Ġmek": 2817,
      "su": 2818,
      "ĠDon": 2819,
      "atasaray": 2820,
      "Ġtekn": 2821,
      "Ġilan": 2822,
      "ĠalbÃ¼mleri": 2823,
      "ius": 2824,
      "Ġlistesi": 2825,
      "Ġmut": 2826,
      "are": 2827,
      "diler": 2828,
      "26": 2829,
      "2009": 2830,
      "ĠboÅŁ": 2831,
      "ĠÃ§oÄŁun": 2832,
      "Ġaday": 2833,
      "ĠkoÅŁ": 2834,
      "ĠdeÄŁildir": 2835,
      "rail": 2836,
      "ĠÅŁair": 2837,
      "ous": 2838,
      "ĠÄ°spanya": 2839,
      "Ġpiyas": 2840,
      "Ġidi": 2841,
      "ĠyazÄ±": 2842,
      "be": 2843,
      "ata": 2844,
      "ĠMer": 2845,
      "andÄ±": 2846,
      "Ġ29": 2847,
      "ĠbaÅŁÄ±na": 2848,
      "eceÄŁi": 2849,
      "Ġsoy": 2850,
      "ahÃ§e": 2851,
      "ĠKaz": 2852,
      "mÄ±z": 2853,
      "ĠsaldÄ±rÄ±": 2854,
      "Ġgez": 2855,
      "ĠuluslararasÄ±": 2856,
      "ĠteÅŁ": 2857,
      "ath": 2858,
      "ĠMustafa": 2859,
      "asÄ±yla": 2860,
      "Ġcez": 2861,
      "ĠedilmiÅŁ": 2862,
      "stit": 2863,
      "ĠVal": 2864,
      "ames": 2865,
      "ĠĠĊ": 2866,
      "ehri": 2867,
      "ĠWilliam": 2868,
      "Ġnit": 2869,
      "Ãĸz": 2870,
      "ld": 2871,
      "ĠMak": 2872,
      "ĠFutbol": 2873,
      "ĠBizans": 2874,
      "left": 2875,
      "ĠSev": 2876,
      "ded": 2877,
      "ĠsayÄ±sÄ±": 2878,
      "uldu": 2879,
      "ĠbaÅŁarÄ±": 2880,
      "28": 2881,
      "ĠalmaktadÄ±r": 2882,
      "78": 2883,
      "taydÄ±": 2884,
      "Ã³": 2885,
      "ĠMur": 2886,
      "au": 2887,
      "Ġdon": 2888,
      "eng": 2889,
      "tp": 2890,
      "Ã¼yle": 2891,
      "ĠaraÃ§": 2892,
      "ass": 2893,
      "Gen": 2894,
      "75": 2895,
      "lemek": 2896,
      "okal": 2897,
      "ĠÄ°zmir": 2898,
      "Ä±yor": 2899,
      "ĠAlbÃ¼m": 2900,
      "ilmek": 2901,
      "era": 2902,
      "ĠsayÄ±da": 2903,
      "Ä±sÄ±ndan": 2904,
      "ĠUluslararasÄ±": 2905,
      "masÄ±nÄ±n": 2906,
      "Ðµ": 2907,
      "ĠMe": 2908,
      "iÅŁi": 2909,
      "Ġkurum": 2910,
      "kar": 2911,
      "masÄ±yla": 2912,
      "iÄŁini": 2913,
      "ĠayÄ±nda": 2914,
      "ani": 2915,
      "gÃ¼r": 2916,
      "ĠLond": 2917,
      "alarda": 2918,
      "ĠkÃ¼t": 2919,
      "Ġsorun": 2920,
      "ĠyÄ±k": 2921,
      "old": 2922,
      "ĠIs": 2923,
      "ĠMehmet": 2924,
      "Ġmeydana": 2925,
      "40": 2926,
      "izi": 2927,
      "amak": 2928,
      "tand": 2929,
      "Ġvideo": 2930,
      "ĠyapÄ±l": 2931,
      "ĠyarÄ±": 2932,
      "Ġhey": 2933,
      "Ġ50": 2934,
      "ĠgÃ¼nÃ¼": 2935,
      "Ġayak": 2936,
      "amÄ±ÅŁ": 2937,
      "ĠOrdu": 2938,
      "Ġkelim": 2939,
      "ĠÃ§ap": 2940,
      "edeki": 2941,
      "may": 2942,
      "makta": 2943,
      "ts": 2944,
      "Film": 2945,
      "etik": 2946,
      "ĠkulÃ¼p": 2947,
      "ĠKÄ±": 2948,
      "ĠÃ§at": 2949,
      "Ġtart": 2950,
      "ĠvardÄ±": 2951,
      "ĠÃĩaÄŁ": 2952,
      "ash": 2953,
      "ĠGeor": 2954,
      "ĠCumhuriyet": 2955,
      "Ġkorum": 2956,
      "ĠbaÅŁken": 2957,
      "Ġetkil": 2958,
      "Ġgitar": 2959,
      "ĠbaÅŁlamÄ±ÅŁtÄ±r": 2960,
      "ĠetmiÅŁ": 2961,
      "ĠFer": 2962,
      "Ġteh": 2963,
      "ÄŁÄ±n": 2964,
      "ĠyÄ±llÄ±k": 2965,
      "Ġtarihli": 2966,
      "Ġbelediy": 2967,
      "ĠHat": 2968,
      "ĠYÃ¼ksek": 2969,
      "Ġ2015": 2970,
      "ĠMor": 2971,
      "Ġfizik": 2972,
      "Ġoper": 2973,
      "ere": 2974,
      "brÄ±s": 2975,
      "abzon": 2976,
      "isayar": 2977,
      "omet": 2978,
      "Ġlider": 2979,
      "ĠamacÄ±yla": 2980,
      "ael": 2981,
      "talÄ±k": 2982,
      "ĠGu": 2983,
      "Ø§": 2984,
      "GÃ¼n": 2985,
      "Ġdak": 2986,
      "Ġ1970": 2987,
      "ĠgÃ¼Ã§lÃ¼": 2988,
      "Ã¼mÃ¼ÅŁ": 2989,
      "//": 2990,
      "Ġherhangi": 2991,
      "alÄ±dÄ±r": 2992,
      "ladÄ±ÄŁÄ±": 2993,
      "eÄŁi": 2994,
      "ĠyÃ¼rÃ¼t": 2995,
      "langÄ±": 2996,
      "Ġkonusunda": 2997,
      "Ġbilgi": 2998,
      "doÄŁ": 2999,
      "Ġmer": 3000,
      "Ġ1991": 3001,
      "ĠyÄ±llarÄ±nda": 3002,
      "ĠHav": 3003,
      "lenmiÅŁtir": 3004,
      "acaÄŁÄ±": 3005,
      "Ġsonucunda": 3006,
      "ĠtartÄ±ÅŁ": 3007,
      "ilerini": 3008,
      "cÄ±lÄ±k": 3009,
      "meyen": 3010,
      "elerini": 3011,
      "ĠMek": 3012,
      "ĠKara": 3013,
      "atif": 3014,
      "27": 3015,
      "orld": 3016,
      "ehr": 3017,
      "Ġism": 3018,
      "Ä±sÄ±na": 3019,
      "aspor": 3020,
      "amaz": 3021,
      "ildiÄŁi": 3022,
      "Ä°lk": 3023,
      "isyen": 3024,
      "Ġzar": 3025,
      "ĠkayÄ±tlarÄ±nda": 3026,
      "Ġod": 3027,
      "Ġveren": 3028,
      "ace": 3029,
      "Rus": 3030,
      "ĠbaÅŁlar": 3031,
      "Ġsona": 3032,
      "ormal": 3033,
      "Ġmem": 3034,
      "Ġcin": 3035,
      "ĠDevleti": 3036,
      "pit": 3037,
      "Ġsey": 3038,
      "ish": 3039,
      "ĠKap": 3040,
      "ĠÃĸn": 3041,
      "ĠaÅŁaÄŁÄ±": 3042,
      "ĠPat": 3043,
      "ĠDemir": 3044,
      "Ġkavram": 3045,
      "ĠateÅŁ": 3046,
      "://": 3047,
      "Ä±ntÄ±": 3048,
      "Ġfik": 3049,
      "ĠAsya": 3050,
      "enc": 3051,
      "Ä±sÄ±yla": 3052,
      "iyah": 3053,
      "talya": 3054,
      "ĠOyuncu": 3055,
      "ĠyÃ¶ntem": 3056,
      "EFA": 3057,
      "eÅŁil": 3058,
      "Ġsefer": 3059,
      "nÄ±": 3060,
      "ĠKemal": 3061,
      "Ġnes": 3062,
      "acaktÄ±r": 3063,
      "arr": 3064,
      "ĠÃ¼rÃ¼n": 3065,
      "eph": 3066,
      "2001": 3067,
      "ĠBab": 3068,
      "ĠAhmet": 3069,
      "ĠYayÄ±nlarÄ±": 3070,
      "ĠKÄ±zÄ±l": 3071,
      "ĠVol": 3072,
      "ĠgeÃ§mektedir": 3073,
      "Ġziy": 3074,
      "anlÄ±": 3075,
      "ematik": 3076,
      "ĠAngel": 3077,
      "Ã¶v": 3078,
      "adaki": 3079,
      "Ġ1960": 3080,
      "jen": 3081,
      "Ġdair": 3082,
      "ĠÃ§evir": 3083,
      "lÄ±ÄŁÄ±na": 3084,
      "Ġfot": 3085,
      "ĠÃ¼lke": 3086,
      "illeri": 3087,
      "uyordu": 3088,
      "ĠÃ¼retim": 3089,
      "mÄ±ÅŁtÄ±": 3090,
      "my": 3091,
      ".,": 3092,
      "ĠaltÄ±n": 3093,
      "Ġelem": 3094,
      "ĠSiv": 3095,
      "Ġkayn": 3096,
      "Ġfelsef": 3097,
      "Ã¼le": 3098,
      "tiler": 3099,
      "Ġetkin": 3100,
      "Ġgelenek": 3101,
      "29": 3102,
      "Ġyani": 3103,
      "fa": 3104,
      "Ġ2016": 3105,
      "Ä±sÄ±nÄ±": 3106,
      "ĠSc": 3107,
      "ein": 3108,
      "Ġbile": 3109,
      "ĠyazarÄ±": 3110,
      "Ġ,": 3111,
      "ezil": 3112,
      "erken": 3113,
      "Ġturn": 3114,
      "Ġhede": 3115,
      "ĠFIFA": 3116,
      "ĠGenÃ§": 3117,
      "ĠYahud": 3118,
      "ice": 3119,
      "ĠgeÃ§er": 3120,
      "usal": 3121,
      "taj": 3122,
      "ÑĢ": 3123,
      "Ġtarz": 3124,
      "ĠMÃ¼slÃ¼man": 3125,
      "ĠRum": 3126,
      "ĠsiyasetÃ§i": 3127,
      "lardÄ±": 3128,
      "ame": 3129,
      "otlar": 3130,
      "ĠMez": 3131,
      "kem": 3132,
      "Ġsahn": 3133,
      "avi": 3134,
      "80": 3135,
      "ÃŃ": 3136,
      "ĠYar": 3137,
      "ĠgÃ¶renler": 3138,
      "Ġsebeb": 3139,
      "hal": 3140,
      "ĠAvustur": 3141,
      "ĠkÃ¶ken": 3142,
      "oyun": 3143,
      "neÄŁi": 3144,
      "ĠyÄ±lÄ±na": 3145,
      "ĠâĢĶ": 3146,
      "Ġbaz": 3147,
      "ĠbaÅŁÄ±nda": 3148,
      "ĠYaÅŁ": 3149,
      "ĠHalk": 3150,
      "Ġedebiyat": 3151,
      "ĠoyunlarÄ±": 3152,
      "Ġdo": 3153,
      "ĠSe": 3154,
      "Ġhast": 3155,
      "ĠÅŁehri": 3156,
      "lev": 3157,
      "yonel": 3158,
      "Ġsebep": 3159,
      "ĠGel": 3160,
      "Ġbar": 3161,
      "madan": 3162,
      "ĠyÃ¶r": 3163,
      "Ġsak": 3164,
      "ĠhikÃ¢": 3165,
      "eÅŁiktaÅŁ": 3166,
      "ĠSim": 3167,
      "erbahÃ§e": 3168,
      "Ġoyuncusu": 3169,
      "Ġce": 3170,
      "ĠbirleÅŁ": 3171,
      "ĠFestiv": 3172,
      "Ġetmektedir": 3173,
      "Ġverir": 3174,
      "ĠSte": 3175,
      "elerine": 3176,
      "ĠfÄ±r": 3177,
      "Ak": 3178,
      "Ġkanal": 3179,
      "ĠErz": 3180,
      "Ġkem": 3181,
      "ĠuÃ§ak": 3182,
      "ĠNor": 3183,
      "Ġyorum": 3184,
      "Ġkir": 3185,
      "ĠparÃ§asÄ±": 3186,
      "Ã¼len": 3187,
      "ĠTar": 3188,
      "rand": 3189,
      "illa": 3190,
      "ĠbugÃ¼n": 3191,
      "berg": 3192,
      "Ġmetal": 3193,
      "Ġuygulam": 3194,
      "ardÄ±m": 3195,
      "Ä±yordu": 3196,
      "Ġengel": 3197,
      "Ġtamamen": 3198,
      "Ġiline": 3199,
      "ĠkÄ±smÄ±": 3200,
      "Ġortal": 3201,
      "ona": 3202,
      "ĠkatÄ±l": 3203,
      "ĠTim": 3204,
      "ĠErkek": 3205,
      "ĠAp": 3206,
      "ory": 3207,
      "Ġkonser": 3208,
      "ĠGÃ¶k": 3209,
      "ĠÃ§arp": 3210,
      "Ð½": 3211,
      "Ġsab": 3212,
      "ĠalanÄ±": 3213,
      "Ġotom": 3214,
      "ĠDi": 3215,
      "Ġ40": 3216,
      "ĠyaÅŁÄ±nda": 3217,
      "masÄ±ndan": 3218,
      "ĠYak": 3219,
      "ision": 3220,
      "Ġ1987": 3221,
      "Ġhaber": 3222,
      "ĠoluÅŁur": 3223,
      "Ġbildir": 3224,
      "ĠtaÅŁÄ±maktadÄ±r": 3225,
      "deniz": 3226,
      "ĠgeÃ§miÅŁ": 3227,
      "Ġdel": 3228,
      "Ġyerel": 3229,
      "anlÄ±k": 3230,
      "adÄ±r": 3231,
      "Ġileri": 3232,
      "led": 3233,
      "eld": 3234,
      "ndan": 3235,
      "ĠKor": 3236,
      "lasik": 3237,
      "Ġdikkat": 3238,
      "Ġders": 3239,
      "acaÄŁÄ±nÄ±": 3240,
      "onk": 3241,
      "ĠJo": 3242,
      "ĠPaul": 3243,
      "2002": 3244,
      "lilik": 3245,
      "yor": 3246,
      "ĠMy": 3247,
      "Ġ1989": 3248,
      "ĠhÃ¼cr": 3249,
      "tul": 3250,
      "Ġpay": 3251,
      "BaÅŁ": 3252,
      "vat": 3253,
      "row": 3254,
      "Ġperforman": 3255,
      "ĠbaÅŁkanÄ±": 3256,
      "Ġbes": 3257,
      "ilerine": 3258,
      "ĠTel": 3259,
      "ÅŁehir": 3260,
      "ĠIII": 3261,
      "ĠÃĸdÃ¼lleri": 3262,
      "ĠKuvvet": 3263,
      "ografi": 3264,
      "Ġben": 3265,
      "ĠSil": 3266,
      "ĠGÃ¶l": 3267,
      "aycan": 3268,
      "Ġtal": 3269,
      "iller": 3270,
      "Ġhes": 3271,
      "Ġederek": 3272,
      "ĠOt": 3273,
      "ĠOrd": 3274,
      "mon": 3275,
      "Ġtekli": 3276,
      "lenmiÅŁ": 3277,
      "Ġkolay": 3278,
      "Ġilet": 3279,
      "ĠaÃ§Ä±klam": 3280,
      "ĠVer": 3281,
      "Ġhukuk": 3282,
      "Ġ2020": 3283,
      "emin": 3284,
      "layÄ±": 3285,
      "ĠBaÄŁ": 3286,
      "ĠtaÅŁÄ±n": 3287,
      "Hay": 3288,
      "mesiyle": 3289,
      "emek": 3290,
      "Ġkuruldu": 3291,
      "ĠMerkezi": 3292,
      "Ġkendisine": 3293,
      "engin": 3294,
      "ĠÃľÃ§": 3295,
      "ĠdoÄŁr": 3296,
      "ĠyazarlarÄ±": 3297,
      "Ġiken": 3298,
      "meden": 3299,
      "ĠkullanÄ±m": 3300,
      "Ġseslendir": 3301,
      "ĠitibarÄ±yla": 3302,
      "ĠbatÄ±": 3303,
      "ĠiÅŁgal": 3304,
      "Ġsezonu": 3305,
      "ital": 3306,
      "Ã¼lÃ¼": 3307,
      "ĠUy": 3308,
      "esindeki": 3309,
      "Ġdeney": 3310,
      "ingle": 3311,
      "Ġbay": 3312,
      "ĠbaÅŁlat": 3313,
      "Ġkil": 3314,
      "ĠÃ§alÄ±ÅŁan": 3315,
      "TBMM": 3316,
      "ĠÅŀehir": 3317,
      "Ġzorunda": 3318,
      "Ã¶ren": 3319,
      "Ġtr": 3320,
      "erbaycan": 3321,
      "ĠGrubu": 3322,
      "isar": 3323,
      "istler": 3324,
      "Ġbeste": 3325,
      "erson": 3326,
      "Ġgiz": 3327,
      "ĠdÃ¼ÅŁÃ¼k": 3328,
      "Ġverildi": 3329,
      "mÄ±zÄ±": 3330,
      "uyu": 3331,
      "ĠGo": 3332,
      "ĠSpor": 3333,
      "ĠbÃ¶lge": 3334,
      "ĠdÃ¶ndÃ¼": 3335,
      "ĠRobert": 3336,
      "ĠKo": 3337,
      "fik": 3338,
      "lanmasÄ±": 3339,
      "ĠGalatasaray": 3340,
      "Ġkariyeri": 3341,
      "Ġred": 3342,
      "ĠMes": 3343,
      "kÃ¼n": 3344,
      "sc": 3345,
      "ĠdoÄŁu": 3346,
      "ĠdoÄŁal": 3347,
      "Ġkariyer": 3348,
      "ĠverdiÄŁi": 3349,
      "Ġmodern": 3350,
      "Ä±nca": 3351,
      "Ġbiy": 3352,
      "Ġ1986": 3353,
      "uma": 3354,
      "ĠÃ§alÄ±ÅŁtÄ±": 3355,
      "ĠBat": 3356,
      "ĠRo": 3357,
      "uluÄŁu": 3358,
      "ĠÃ¶rgÃ¼t": 3359,
      "adÄ±ÄŁÄ±nÄ±": 3360,
      "ĠDiÄŁer": 3361,
      "Ä±rlar": 3362,
      "ĠJos": 3363,
      "zer": 3364,
      "ĠKÃ¼ltÃ¼r": 3365,
      "ĠMo": 3366,
      "2003": 3367,
      "ĠLat": 3368,
      "Ġdefa": 3369,
      "Ġkilis": 3370,
      "Ġnedenle": 3371,
      "nu": 3372,
      "ĠRoman": 3373,
      "ĠkiÅŁiler": 3374,
      "ĠgÃ¶rdÃ¼": 3375,
      "ĠCem": 3376,
      "TV": 3377,
      "ĠPan": 3378,
      "ula": 3379,
      "Ġterc": 3380,
      "ĠJack": 3381,
      "ĠyazdÄ±ÄŁÄ±": 3382,
      "ĠEski": 3383,
      "ĠMc": 3384,
      "ĠWh": 3385,
      "ĠGÃ¶r": 3386,
      "90": 3387,
      "Ġhafta": 3388,
      "Ġbeyaz": 3389,
      "arÄ±nda": 3390,
      "Ġ31": 3391,
      "Ġekonomik": 3392,
      "Ġ1988": 3393,
      "Res": 3394,
      "hane": 3395,
      "ĠiÃ§eren": 3396,
      "ĠbakÄ±m": 3397,
      "ĠdÃ¼zenlenen": 3398,
      "uru": 3399,
      "best": 3400,
      "ĠkeÅŁf": 3401,
      "ife": 3402,
      "ĠÃ¶nceki": 3403,
      "ĠÄ°st": 3404,
      "ebil": 3405,
      "iden": 3406,
      "ĠÃ¼zerinden": 3407,
      "Ġkurdu": 3408,
      "ÄŁine": 3409,
      "Ġforma": 3410,
      "Ġiddia": 3411,
      "ĠBÃ¶lÃ¼m": 3412,
      "ĠKÄ±brÄ±s": 3413,
      "ĠolmasÄ±na": 3414,
      "Ġteda": 3415,
      "ĠFC": 3416,
      "tepe": 3417,
      "ĠkardeÅŁi": 3418,
      "ĠmÃ¼cadele": 3419,
      "atÃ¼rk": 3420,
      "35": 3421,
      "Ä°ngilizce": 3422,
      "ena": 3423,
      "mar": 3424,
      "ĠmaÄŁ": 3425,
      "aka": 3426,
      "ĠBulgar": 3427,
      "Ġkapsam": 3428,
      "center": 3429,
      "maktaydÄ±": 3430,
      "ĠBaÅŁkanÄ±": 3431,
      "eyin": 3432,
      "elerinden": 3433,
      "Ã§Ä±sÄ±": 3434,
      "bilir": 3435,
      "ÄŁa": 3436,
      "pek": 3437,
      "ĠkÄ±zÄ±": 3438,
      "ĠgÃ¶l": 3439,
      "ĠMichael": 3440,
      "Ġhedef": 3441,
      "tic": 3442,
      "Ġistem": 3443,
      "Ġderece": 3444,
      "ĠgÃ¶k": 3445,
      "tadyum": 3446,
      "ĠÃĸrneÄŁin": 3447,
      "Ġkazanan": 3448,
      "Ġ2017": 3449,
      "ĠAc": 3450,
      "Ä±larak": 3451,
      "ĠÅŀah": 3452,
      "ĠPortekiz": 3453,
      "Ġ[": 3454,
      "ĠBakanlÄ±ÄŁÄ±": 3455,
      "alarÄ±nÄ±": 3456,
      "ĠsonrasÄ±nda": 3457,
      "ĠNo": 3458,
      "ational": 3459,
      "Ġolsa": 3460,
      "eydi": 3461,
      "Ġizin": 3462,
      "Ä±sÄ±nÄ±n": 3463,
      "ĠoluÅŁum": 3464,
      "bat": 3465,
      "Ġihtiy": 3466,
      "siyonu": 3467,
      "Ġalarak": 3468,
      "ĠWil": 3469,
      "ĠÃ§ocu": 3470,
      "Ġciv": 3471,
      "Ġweb": 3472,
      "ĠÄ°kinci": 3473,
      "leÅŁme": 3474,
      "70": 3475,
      "Ã¤": 3476,
      "Ġtespit": 3477,
      "Â²": 3478,
      "ĠhÄ±zlÄ±": 3479,
      "ĠHak": 3480,
      "ayi": 3481,
      "ney": 3482,
      "ĠTiyatro": 3483,
      "ĠyÃ¼zyÄ±lÄ±n": 3484,
      "Ġserbest": 3485,
      "Ġsayesinde": 3486,
      "esidir": 3487,
      "ahim": 3488,
      "ĠDaÄŁ": 3489,
      "Ġpara": 3490,
      "ann": 3491,
      "Ġeg": 3492,
      "Ġdavran": 3493,
      "ĠRad": 3494,
      "ult": 3495,
      "Son": 3496,
      "ĠyalnÄ±zca": 3497,
      "ĠÃ¼lkenin": 3498,
      "ĠGre": 3499,
      "KÃ¶yÃ¼n": 3500,
      "ĠÄ°spanyol": 3501,
      "alarÄ±nÄ±n": 3502,
      "masÄ±nda": 3503,
      "ĠTrabzon": 3504,
      "Ġhap": 3505,
      "ĠdÃ¼nyanÄ±n": 3506,
      "mÃ¼r": 3507,
      "abÄ±": 3508,
      "raz": 3509,
      "laÅŁmasÄ±": 3510,
      "Ġoyuncular": 3511,
      "ove": 3512,
      "isel": 3513,
      "Ġfir": 3514,
      "ĠBazÄ±": 3515,
      "ĠgurbetÃ§i": 3516,
      "ĠLondra": 3517,
      "ĠQu": 3518,
      "ĠÃ§alÄ±ÅŁmalarÄ±": 3519,
      "Ġkayb": 3520,
      "kr": 3521,
      "ĠYarÄ±ÅŁ": 3522,
      "190": 3523,
      "ĠyapÄ±ldÄ±": 3524,
      "ĠyardÄ±mcÄ±": 3525,
      "ĠÄ°srail": 3526,
      "ĠLisesi": 3527,
      "ĠiÅŁlet": 3528,
      "anlarÄ±": 3529,
      "liÄŁinde": 3530,
      "OsmanlÄ±": 3531,
      "lÃ¢": 3532,
      "Ñģ": 3533,
      "ĠBelediy": 3534,
      "ĠyabancÄ±": 3535,
      "ĠSay": 3536,
      "Ġlis": 3537,
      "ola": 3538,
      "ĠHen": 3539,
      "ĠcanlandÄ±r": 3540,
      "ĠFat": 3541,
      "ahraman": 3542,
      "Ġdiye": 3543,
      "Ġboyut": 3544,
      "ĠkulÃ¼b": 3545,
      "ĠÃ§atÄ±ÅŁ": 3546,
      "ons": 3547,
      "ĠBritan": 3548,
      "amadÄ±": 3549,
      "ĠsonrasÄ±": 3550,
      "cisi": 3551,
      "layarak": 3552,
      "tis": 3553,
      "ĠYahudi": 3554,
      "Ġ1984": 3555,
      "ĠBor": 3556,
      "ĠÅŁarkÄ±larÄ±": 3557,
      "kÃ¶y": 3558,
      "Ġsitesi": 3559,
      "lidir": 3560,
      "ĠÃ¶ner": 3561,
      "Ġ1982": 3562,
      "ĠWorld": 3563,
      "mada": 3564,
      "aÄŁÄ±t": 3565,
      "1990": 3566,
      "erler": 3567,
      "ester": 3568,
      "Ġyoktur": 3569,
      "ĠÄ°sveÃ§": 3570,
      "hr": 3571,
      "ĠMÃ¼": 3572,
      "yu": 3573,
      "ĠSÃ¶z": 3574,
      "ĠÎ": 3575,
      "Ġmetre": 3576,
      "ĠkurulmuÅŁtur": 3577,
      "ĠAvustr": 3578,
      "ĠMel": 3579,
      "ĠVen": 3580,
      "Ġ186": 3581,
      "eceÄŁini": 3582,
      "ĠJaponya": 3583,
      "ĠSÃ¼per": 3584,
      "Ġvol": 3585,
      "Ġ1985": 3586,
      "ĠYou": 3587,
      "ĠJapon": 3588,
      "ĠVan": 3589,
      "ĠYerel": 3590,
      "ows": 3591,
      "ndeki": 3592,
      "Ġ2019": 3593,
      "Ch": 3594,
      "ĠresmÃ®": 3595,
      "Ġseviy": 3596,
      "teri": 3597,
      "osk": 3598,
      "uel": 3599,
      "ĠÄ°ki": 3600,
      "\"|": 3601,
      "ĠRec": 3602,
      "ori": 3603,
      "Ġressam": 3604,
      "teki": 3605,
      "Ä±nar": 3606,
      "Ġ2018": 3607,
      "ĠoynadÄ±": 3608,
      "edilen": 3609,
      "irler": 3610,
      "ilebilir": 3611,
      "Ġtoplan": 3612,
      "ĠmaÃ§Ä±nda": 3613,
      "ĠĠĠĠĠĠĠĠĠĠĠĠĠĠĠĠ": 3614,
      "taki": 3615,
      "Ġ1974": 3616,
      "Â°": 3617,
      "ĠMed": 3618,
      "amb": 3619,
      "ĠakÄ±m": 3620,
      "ammed": 3621,
      "Ã¶rd": 3622,
      "olik": 3623,
      "alÄ±ÄŁÄ±": 3624,
      "Ġprofesyonel": 3625,
      "ĠCharl": 3626,
      "ĠDavid": 3627,
      "asÄ±l": 3628,
      "unt": 3629,
      "Ä±lmaz": 3630,
      "ĠRos": 3631,
      "erkes": 3632,
      "ira": 3633,
      "Ġbunu": 3634,
      "Ġzengin": 3635,
      "hy": 3636,
      "ĠkÃ¶k": 3637,
      "debiyat": 3638,
      "undaki": 3639,
      "ĠarasÄ±": 3640,
      "opol": 3641,
      "ĠdeÄŁerlendir": 3642,
      "Ġkamp": 3643,
      "Ã§esi": 3644,
      "mm": 3645,
      "Ġmimar": 3646,
      "ĠMark": 3647,
      "ĠOsman": 3648,
      "ĠJames": 3649,
      "mal": 3650,
      "ĠEÄŁitim": 3651,
      "culuk": 3652,
      "ĠmÃ¼m": 3653,
      "ĠartÄ±k": 3654,
      "ĠgÃ¶zlem": 3655,
      "ĠYÃ¼z": 3656,
      "Ġkendini": 3657,
      "ĠMat": 3658,
      "ĠtanrÄ±": 3659,
      "99": 3660,
      "lov": 3661,
      "age": 3662,
      "ukarÄ±": 3663,
      "Ġsit": 3664,
      "Ġsp": 3665,
      "Ã¢h": 3666,
      "ĠeÅŁit": 3667,
      "Ġpiyasaya": 3668,
      "ĠMu": 3669,
      "ĠsÃ¼rekli": 3670,
      "Ġrom": 3671,
      "alarÄ±na": 3672,
      "Ġincel": 3673,
      "elt": 3674,
      "say": 3675,
      "Ġkonusu": 3676,
      "idi": 3677,
      "iÅŁleri": 3678,
      "ĠseÃ§ildi": 3679,
      "ĠAdam": 3680,
      "ence": 3681,
      "ĠSosyal": 3682,
      "ĠkatkÄ±": 3683,
      "ward": 3684,
      "aÄŁan": 3685,
      "ĠKut": 3686,
      "ĠÃ¶lÃ§Ã¼": 3687,
      "Ġko": 3688,
      "Ġ1975": 3689,
      "ĠTe": 3690,
      "ĠSah": 3691,
      "olojisi": 3692,
      "Ġdolay": 3693,
      "ze": 3694,
      "lip": 3695,
      "aleti": 3696,
      "Ġyum": 3697,
      "Ġkesin": 3698,
      "ĠdÃ¶nemi": 3699,
      "Ġyeri": 3700,
      "ĠFestivali": 3701,
      "ĠSÃ¼": 3702,
      "lamak": 3703,
      "ĠHÃ¼s": 3704,
      "ĠayÄ±r": 3705,
      "ĠAle": 3706,
      "ĠRich": 3707,
      "ĠBuna": 3708,
      "ĠkarÅŁÄ±lÄ±k": 3709,
      "ÄŁunu": 3710,
      "Ã§ak": 3711,
      "ĠOrt": 3712,
      "Ġsub": 3713,
      "ĠtanÄ±t": 3714,
      "Ġhalinde": 3715,
      "ĠUEFA": 3716,
      "Ġbelg": 3717,
      "Ġelektrik": 3718,
      "ĠUSS": 3719,
      "ĠUlusal": 3720,
      "Ġmalz": 3721,
      "ĠdÃ¼zey": 3722,
      "Ġmezun": 3723,
      "ĠkÃ¶tÃ¼": 3724,
      "ĠBÃ¶ylece": 3725,
      "ain": 3726,
      "1999": 3727,
      "Ġhale": 3728,
      "gisi": 3729,
      "ĠtarÄ±m": 3730,
      "tÃ¼d": 3731,
      "ĠAvusturya": 3732,
      "DoÄŁ": 3733,
      "bey": 3734,
      "ĠGrup": 3735,
      "Ġmekan": 3736,
      "ĠBerlin": 3737,
      "okrat": 3738,
      "sim": 3739,
      "ĠBeÅŁiktaÅŁ": 3740,
      "ĠFenerbahÃ§e": 3741,
      "iet": 3742,
      "Ġfonk": 3743,
      "ĠmÃ¼mkÃ¼n": 3744,
      "Ġmiktar": 3745,
      "Ġyeten": 3746,
      "kim": 3747,
      "Ġ1983": 3748,
      "atistik": 3749,
      "ida": 3750,
      "ĠbÃ¶lÃ¼mÃ¼": 3751,
      "ĠtasarÄ±m": 3752,
      "za": 3753,
      "Ġvur": 3754,
      "tandart": 3755,
      "elerden": 3756,
      "ĠcanlÄ±": 3757,
      "Ġla": 3758,
      "ĠÄ°r": 3759,
      "TA": 3760,
      "ĠKilis": 3761,
      "Ġdevr": 3762,
      "Ġticaret": 3763,
      "mayan": 3764,
      "Ġ1973": 3765,
      "Ä±labilir": 3766,
      "off": 3767,
      "Ã¼me": 3768,
      "ĠTom": 3769,
      "ĠgÃ¼nÃ¼mÃ¼zde": 3770,
      "ezi": 3771,
      "Ġ1971": 3772,
      "ĠOlimpiyatlarÄ±": 3773,
      "Ġarac": 3774,
      "ĠGÃ¼l": 3775,
      "Avrupa": 3776,
      "Ġbilgisayar": 3777,
      "arken": 3778,
      "ĠHÃ¼k": 3779,
      "ĠMÃ¼dÃ¼r": 3780,
      "Ġstat": 3781,
      "45": 3782,
      "ane": 3783,
      "ĠtÃ¼rÃ¼": 3784,
      "manÄ±": 3785,
      "ĠGaz": 3786,
      "ĠeÄŁit": 3787,
      "El": 3788,
      "iddet": 3789,
      "ĠkarÅŁÄ±sÄ±nda": 3790,
      "Ġotur": 3791,
      "ĠkÄ±": 3792,
      "Ġalign": 3793,
      "lÄ±ÄŁa": 3794,
      "aÄŁa": 3795,
      "ĠFin": 3796,
      "ĠaÃ§Ä±": 3797,
      "indistan": 3798,
      "ĠSol": 3799,
      "Ġner": 3800,
      "ronik": 3801,
      "daÄŁ": 3802,
      "Ġrast": 3803,
      "gÃ¼": 3804,
      "ilerinin": 3805,
      "SA": 3806,
      "Ġ1972": 3807,
      "SC": 3808,
      "adi": 3809,
      "yar": 3810,
      "ĠSivas": 3811,
      "Ġtakip": 3812,
      "ĠdoÄŁdu": 3813,
      "ĠSelÃ§": 3814,
      "Ġkop": 3815,
      "ĠbaÅŁlangÄ±": 3816,
      "ĠMem": 3817,
      "Ġsayf": 3818,
      "Ä±sÄ±z": 3819,
      "meleri": 3820,
      "As": 3821,
      "Ġdemir": 3822,
      "ĠSav": 3823,
      "Ġanda": 3824,
      "akÄ±r": 3825,
      "ĠÃ¼zerindeki": 3826,
      "ĠfotoÄŁraf": 3827,
      "Ġderec": 3828,
      "altÄ±": 3829,
      "Ġziyaret": 3830,
      "ĠaltÄ±na": 3831,
      "ĠParti": 3832,
      "Oyun": 3833,
      "Ġpuan": 3834,
      "ald": 3835,
      "cÄ±lar": 3836,
      "ĠyÃ¶nelik": 3837,
      "alara": 3838,
      "lÄ±ca": 3839,
      "1998": 3840,
      "Ġbilinir": 3841,
      "viÃ§": 3842,
      "ĠtÃ¼k": 3843,
      "Ġhesap": 3844,
      "ĠtaÅŁÄ±yan": 3845,
      "iter": 3846,
      "Ġ1979": 3847,
      "bu": 3848,
      "Ġbahs": 3849,
      "ene": 3850,
      "mekte": 3851,
      "Ġmed": 3852,
      "ĠSÃ¼r": 3853,
      "Ġbuz": 3854,
      "Ġ1968": 3855,
      "brahim": 3856,
      "isidir": 3857,
      "leyman": 3858,
      "ĠsoÄŁ": 3859,
      "ĠsatÄ±ÅŁ": 3860,
      "Ġtav": 3861,
      "va": 3862,
      "33": 3863,
      "ĠhikÃ¢y": 3864,
      "ekten": 3865,
      "Ġhakim": 3866,
      "ĠProf": 3867,
      "bil": 3868,
      "ĠHava": 3869,
      "ĠAtatÃ¼rk": 3870,
      "ott": 3871,
      "ĠEt": 3872,
      "obil": 3873,
      "uth": 3874,
      "Ġyapmak": 3875,
      "bur": 3876,
      "Ġtas": 3877,
      "lukla": 3878,
      "ano": 3879,
      "Ġruh": 3880,
      "ĠOkulu": 3881,
      "ike": 3882,
      "lÄ±lÄ±k": 3883,
      "Ġuygulan": 3884,
      "ĠyapÄ±lmÄ±ÅŁtÄ±r": 3885,
      "ĠyayÄ±nlanan": 3886,
      "ĠBrezil": 3887,
      "ĠÄ°nsan": 3888,
      "Ġyolu": 3889,
      "inler": 3890,
      "ĠYunanistan": 3891,
      "ĠTanrÄ±": 3892,
      "ĠDo": 3893,
      "Tek": 3894,
      "larÄ±ndaki": 3895,
      "ĠAzerbaycan": 3896,
      "ĠsayÄ±m": 3897,
      "eyh": 3898,
      "Ġrap": 3899,
      "ĠkiÅŁinin": 3900,
      "ĠkitabÄ±": 3901,
      "Ġkork": 3902,
      "ÑĤ": 3903,
      "ilip": 3904,
      "ĠChrist": 3905,
      "miÅŁti": 3906,
      "Ġmec": 3907,
      "own": 3908,
      "Ġoyunu": 3909,
      "apÄ±": 3910,
      "Ġlim": 3911,
      "Ġulusal": 3912,
      "asi": 3913,
      "ĊĠĊ": 3914,
      "liÄŁe": 3915,
      "ĠGÃ¼neÅŁ": 3916,
      "ĠErzurum": 3917,
      "rag": 3918,
      "ĠVak": 3919,
      "ĠResmi": 3920,
      "ĠTor": 3921,
      "ĠdeÄŁiÅŁiklik": 3922,
      "ĠIrak": 3923,
      "Ġsok": 3924,
      "St": 3925,
      "Ġordus": 3926,
      "olf": 3927,
      "Br": 3928,
      "ban": 3929,
      "2011": 3930,
      "atlÄ±": 3931,
      "ĠSovyetler": 3932,
      "Ã¼ny": 3933,
      "lÄ±kla": 3934,
      "Ġ1969": 3935,
      "ĠadÄ±na": 3936,
      "ĠMag": 3937,
      "Ġyoluyla": 3938,
      "Ã¼ndeki": 3939,
      "uman": 3940,
      "ĠEnstit": 3941,
      "Ġturnuv": 3942,
      "ĠBoy": 3943,
      "Ġbirinci": 3944,
      "yordu": 3945,
      "Ġ1950": 3946,
      "oru": 3947,
      "ĠbÃ¶lgede": 3948,
      "Ġ1978": 3949,
      "Ġ1967": 3950,
      "Ġmit": 3951,
      "ĠCen": 3952,
      "ĠTakÄ±m": 3953,
      "ĠkiÅŁilik": 3954,
      "ĠAkdeniz": 3955,
      "Ġbelediye": 3956,
      "Ġ1965": 3957,
      "ĠTok": 3958,
      "eyn": 3959,
      "ĠyÄ±lÄ±nÄ±n": 3960,
      "Ġ1976": 3961,
      "Ġdes": 3962,
      "ĠPap": 3963,
      "Ġbomb": 3964,
      "Ġdenir": 3965,
      "ĠMacar": 3966,
      "ullarÄ±": 3967,
      "Ġkayded": 3968,
      "Ġdili": 3969,
      "Ġta": 3970,
      "lÄ±klÄ±": 3971,
      "ĠPal": 3972,
      "Ġ1981": 3973,
      "ĠgelmiÅŁtir": 3974,
      "ĠMod": 3975,
      "ĠMillet": 3976,
      "Ã¶ÄŁr": 3977,
      "Ġef": 3978,
      "ĠKÃ¼Ã§Ã¼k": 3979,
      "ĠTun": 3980,
      "ĠMuhammed": 3981,
      "Ġvatan": 3982,
      "48": 3983,
      "Ã¼mÃ¼zde": 3984,
      "Ġdram": 3985,
      "Ġorman": 3986,
      "....": 3987,
      "Ġmatematik": 3988,
      "form": 3989,
      "Ġedilmektedir": 3990,
      "ĠgÃ¶rÃ¼lÃ¼r": 3991,
      "ĠsÄ±nÄ±rlarÄ±": 3992,
      "lack": 3993,
      "aff": 3994,
      "Ġ2021": 3995,
      "Ġdek": 3996,
      "ĠÃ§Ã¼nkÃ¼": 3997,
      "1996": 3998,
      "Ġsiyah": 3999,
      "Ġnormal": 4000,
      "Ġortam": 4001,
      "ĠTaÅŁ": 4002,
      "ĠaÄŁaÃ§": 4003,
      "Ġyana": 4004,
      "ĠFo": 4005,
      "ĠarkadaÅŁÄ±": 4006,
      "lÄ±nda": 4007,
      "ĠiÅŁaret": 4008,
      "Ġsim": 4009,
      "Ġcumhur": 4010,
      "95": 4011,
      "ĠSab": 4012,
      "Ä±rken": 4013,
      "Ðº": 4014,
      "Ä±f": 4015,
      "ĠKim": 4016,
      "Ġoynanan": 4017,
      "ĠMin": 4018,
      "ĠFrank": 4019,
      "stein": 4020,
      "ĠDerneÄŁi": 4021,
      "Ã¶rdÃ¼ncÃ¼": 4022,
      "ĠLu": 4023,
      "rich": 4024,
      "Ġveri": 4025,
      "Kul": 4026,
      "ĠgÃ¶sterir": 4027,
      "bon": 4028,
      "ĠBill": 4029,
      "ĠHo": 4030,
      "ĠÃ¶y": 4031,
      "ĠKuvvetleri": 4032,
      "ĠWar": 4033,
      "etin": 4034,
      "imiz": 4035,
      "Ġparti": 4036,
      "ĠstÃ¼d": 4037,
      "ĠsÃ¼ren": 4038,
      "ĠbÃ¶lgesinde": 4039,
      "po": 4040,
      "ĠmÃ¼ziÄŁi": 4041,
      "ĠdÃ¼nyaya": 4042,
      "ĠTay": 4043,
      "ÄŁÄ±na": 4044,
      "ĠSak": 4045,
      "ĠaÃ§Ä±sÄ±ndan": 4046,
      "ĠpopÃ¼ler": 4047,
      "uyor": 4048,
      "ĠGeneral": 4049,
      "Ġhep": 4050,
      "ĠsiyasetÃ§iler": 4051,
      "Ġterk": 4052,
      "ĠNehri": 4053,
      "ipl": 4054,
      "ĠBah": 4055,
      "ĠmaÃ§Ä±": 4056,
      "Ġ1966": 4057,
      "arruz": 4058,
      "Ġah": 4059,
      "ĠgÃ¼c": 4060,
      "ment": 4061,
      "ĠErmeni": 4062,
      "ĠKrallÄ±ÄŁÄ±": 4063,
      "Ġ1977": 4064,
      "Ġtahmin": 4065,
      "ĠÃ¶ne": 4066,
      "abilecek": 4067,
      "lediÄŁi": 4068,
      "alim": 4069,
      "ĠStr": 4070,
      "ĠAraÅŁtÄ±r": 4071,
      "Ġpsik": 4072,
      "Ġetkili": 4073,
      "Ġ1945": 4074,
      "ĠAydÄ±n": 4075,
      "lum": 4076,
      "ĠÃĩek": 4077,
      "ĠYol": 4078,
      "Ġmadde": 4079,
      "ĠoluÅŁturur": 4080,
      "Ä±ÅŁtÄ±": 4081,
      "Ġdonan": 4082,
      "Ġmens": 4083,
      "ague": 4084,
      "go": 4085,
      "baÅŁÄ±": 4086,
      "Ġpoz": 4087,
      "Ġins": 4088,
      "Ġimzal": 4089,
      "ĠÅŁiddet": 4090,
      "iforn": 4091,
      "Ġmadalya": 4092,
      "isa": 4093,
      "31": 4094,
      "ĠdÃ¼ÅŁÃ¼nc": 4095,
      "Ġdeste": 4096,
      "Ġsingle": 4097,
      "ĠFor": 4098,
      "Ġindir": 4099,
      "ure": 4100,
      "ĠÃ¶ÄŁretim": 4101,
      "ĠEx": 4102,
      "Ġettir": 4103,
      "Gal": 4104,
      "ĠAkadem": 4105,
      "dÄ±ktan": 4106,
      "vin": 4107,
      "Ġvokal": 4108,
      "ĠyerleÅŁtir": 4109,
      "ago": 4110,
      "Ġkendisi": 4111,
      "hat": 4112,
      "ĠBÃ¶lgesi": 4113,
      "ĠMÃ¼zesi": 4114,
      "ĠWal": 4115,
      "iyel": 4116,
      "aÃ§lÄ±": 4117,
      "Ã¶lÃ§": 4118,
      "keti": 4119,
      "itt": 4120,
      "liÄŁine": 4121,
      "gul": 4122,
      "ington": 4123,
      "ĠhastalÄ±k": 4124,
      "Ġtercih": 4125,
      "ony": 4126,
      "kÃ¢n": 4127,
      "Ġgaz": 4128,
      "Ġenerji": 4129,
      "ĠKomut": 4130,
      "ĠGeorge": 4131,
      "ĠalÄ±ndÄ±": 4132,
      "Ã§ileri": 4133,
      "Ġyarar": 4134,
      "ĠbaÄŁlantÄ±": 4135,
      "ullah": 4136,
      "Ġyenil": 4137,
      "tiÄŁini": 4138,
      "Ġbelirli": 4139,
      "ĠsaÄŁlar": 4140,
      "isinden": 4141,
      "ita": 4142,
      "sch": 4143,
      "Ġvon": 4144,
      "ĠOrdusu": 4145,
      "ĠĠĠ": 4146,
      "Ġdoktor": 4147,
      "astik": 4148,
      "araj": 4149,
      "ĠyapmÄ±ÅŁ": 4150,
      "ĠbasÄ±n": 4151,
      "Ġanal": 4152,
      "1997": 4153,
      "38": 4154,
      "ĠÄ±ÅŁÄ±k": 4155,
      "rah": 4156,
      "Ã§u": 4157,
      "lenmesi": 4158,
      "ĠSÃ¼leyman": 4159,
      "ĠkÄ±sÄ±m": 4160,
      "Ä°k": 4161,
      "Ġkapat": 4162,
      "ĠyÃ¼zey": 4163,
      "ĠSm": 4164,
      "Ġmin": 4165,
      "Ä°l": 4166,
      "Ä±nday": 4167,
      "eybol": 4168,
      "ĠErmen": 4169,
      "Ã¨": 4170,
      "ĠYardÄ±m": 4171,
      "Ġkurtar": 4172,
      "Ġdiy": 4173,
      "antin": 4174,
      "uf": 4175,
      "ele": 4176,
      "ĠgÃ¶steren": 4177,
      "Ġazal": 4178,
      "Ġgeleneksel": 4179,
      "macÄ±": 4180,
      "Ð»": 4181,
      "cistan": 4182,
      "Ġtank": 4183,
      "izasyon": 4184,
      "ĠEdebiyat": 4185,
      "yse": 4186,
      "Mah": 4187,
      "blem": 4188,
      "Ġĉ": 4189,
      "dikten": 4190,
      "ĠyapÄ±lmÄ±ÅŁ": 4191,
      "Ġradyo": 4192,
      "Ġkendisini": 4193,
      "Ġval": 4194,
      "Ġetraf": 4195,
      "sar": 4196,
      "que": 4197,
      "ĠHukuk": 4198,
      "ford": 4199,
      "ĠSey": 4200,
      "ĠMuhareb": 4201,
      "ille": 4202,
      "eksiyon": 4203,
      "ĠyÃ¼zden": 4204,
      "Ġgrubun": 4205,
      "Ġharf": 4206,
      "Ġetkisi": 4207,
      "ĠyÃ¶nettiÄŁi": 4208,
      "nam": 4209,
      "ayla": 4210,
      "ĠadÄ±nda": 4211,
      "lÄ±ÄŁÄ±n": 4212,
      "Ġordusu": 4213,
      "rada": 4214,
      "ĠKam": 4215,
      "ĠSuriye": 4216,
      "ĠmÃ¼hendis": 4217,
      "aklÄ±": 4218,
      "ĠdaÄŁÄ±t": 4219,
      "ĠOf": 4220,
      "ĠBurada": 4221,
      "Ġdurumda": 4222,
      "ĠYÄ±ldÄ±z": 4223,
      "ĠÃ§Ä±kmÄ±ÅŁtÄ±r": 4224,
      "ĠkÄ±yÄ±": 4225,
      "ae": 4226,
      "36": 4227,
      "arlÄ±ÄŁÄ±": 4228,
      "Ã¼kle": 4229,
      "37": 4230,
      "Ġakadem": 4231,
      ")'": 4232,
      "ole": 4233,
      "Ġ1961": 4234,
      "ĠMen": 4235,
      "dek": 4236,
      "ny": 4237,
      "tadan": 4238,
      "55": 4239,
      "ĠJon": 4240,
      "ĠÃĸzel": 4241,
      "ĠKons": 4242,
      "ulur": 4243,
      "ĠMas": 4244,
      "apÄ±n": 4245,
      "ĠpaylaÅŁ": 4246,
      "Ġ60": 4247,
      "RT": 4248,
      "ÄŁinden": 4249,
      "Ã¼nist": 4250,
      "Ġyedi": 4251,
      "Ã¼ÄŁ": 4252,
      "ĠGazet": 4253,
      "ĠyÄ±llar": 4254,
      "Ġ1964": 4255,
      "ĠNik": 4256,
      "hi": 4257,
      "ĠsÃ¼reÃ§": 4258,
      "ords": 4259,
      "Ġperformans": 4260,
      "44": 4261,
      "ĠbaÅŁkenti": 4262,
      "Ġht": 4263,
      "ĠKralÄ±": 4264,
      "tÄ±lÄ±": 4265,
      "ical": 4266,
      "ĠbalÄ±k": 4267,
      "Ġfilmin": 4268,
      "ĠverilmiÅŁtir": 4269,
      "ever": 4270,
      "ĠDiy": 4271,
      "Ġsenar": 4272,
      "ĠCor": 4273,
      "ĠDil": 4274,
      "isyonu": 4275,
      "Ġegemen": 4276,
      "ĠAma": 4277,
      "Ġhttp": 4278,
      "Ġbal": 4279,
      "ĠCharles": 4280,
      "2012": 4281,
      "ĠHindistan": 4282,
      "Ġkomp": 4283,
      "Ġinc": 4284,
      "ĠKÃ¼rt": 4285,
      "Ġannesi": 4286,
      "allen": 4287,
      "Ġgelmektedir": 4288,
      "ĠsÃ¶ylem": 4289,
      "Ġuzay": 4290,
      "ĠGÃ¼rcÃ¼": 4291,
      "Ġrock": 4292,
      "ĠayrÄ±ldÄ±": 4293,
      "ĠGeÃ§": 4294,
      "1980": 4295,
      "ĠÃ§oÄŁ": 4296,
      "ĠkullanÄ±lmaktadÄ±r": 4297,
      "ĠThom": 4298,
      "ĠkurulmuÅŁ": 4299,
      "Ġresim": 4300,
      "08": 4301,
      "Ġip": 4302,
      "Ġkup": 4303,
      "Ġkural": 4304,
      "ĠGar": 4305,
      "ĠÃĩocuk": 4306,
      "Ġetkilen": 4307,
      "Ankara": 4308,
      "ics": 4309,
      "lanma": 4310,
      "ĠÅŁarkÄ±sÄ±": 4311,
      "Ġmilletvekilleri": 4312,
      "Ġzarar": 4313,
      "ĠÃĩal": 4314,
      "FransÄ±z": 4315,
      "ĠyayÄ±mlanan": 4316,
      "ĠdoÄŁrudan": 4317,
      "ĠKurulu": 4318,
      "Par": 4319,
      "acÄ±k": 4320,
      "oma": 4321,
      "cularÄ±": 4322,
      "ĠAvustralya": 4323,
      "ho": 4324,
      "ĠHarek": 4325,
      "ĠDin": 4326,
      "Ġiy": 4327,
      "ĠĊĠ": 4328,
      "Ġbuna": 4329,
      "Ġaktar": 4330,
      "yÃ¼z": 4331,
      "Ġ+": 4332,
      "ĠBol": 4333,
      "Port": 4334,
      "ĠÄ°brahim": 4335,
      "ĠvatandaÅŁ": 4336,
      "rid": 4337,
      "ĠMir": 4338,
      "ĠKaf": 4339,
      "afer": 4340,
      "Ġderin": 4341,
      "Ã§Ä±k": 4342,
      "ĠyazdÄ±": 4343,
      "jantin": 4344,
      "kas": 4345,
      "Ġcins": 4346,
      "ĠÃ¼lkeler": 4347,
      "ĠkÃ¶kenli": 4348,
      "ĠMillÃ®": 4349,
      "ĠÃ§alÄ±ÅŁma": 4350,
      "Ġbelli": 4351,
      "ĠbaskÄ±": 4352,
      "cm": 4353,
      "adeniz": 4354,
      "ĠÅŁarkÄ±lar": 4355,
      "aly": 4356,
      "add": 4357,
      "ĠiÃ§ine": 4358,
      "39": 4359,
      "ĠCel": 4360,
      "ĠPo": 4361,
      "umu": 4362,
      "nav": 4363,
      "ĠSaÄŁ": 4364,
      "ĠkullanÄ±lmÄ±ÅŁtÄ±r": 4365,
      "Ġ35": 4366,
      "ĠBursa": 4367,
      "At": 4368,
      "ĠkÃ¼r": 4369,
      "www": 4370,
      "iel": 4371,
      "ĠKitap": 4372,
      "Ġsiv": 4373,
      "ĠWe": 4374,
      "Ġvak": 4375,
      "34": 4376,
      "Ġmar": 4377,
      "ĠkanÄ±t": 4378,
      "ĠJul": 4379,
      "Ġyerini": 4380,
      "ĠVar": 4381,
      "ĠAbdÃ¼l": 4382,
      "Ġdurumu": 4383,
      "Ġhip": 4384,
      "ĠÃ¶lÃ§Ã¼de": 4385,
      "ĠbirleÅŁtir": 4386,
      "ĠsayÄ±lÄ±": 4387,
      "bert": 4388,
      "urdu": 4389,
      "itz": 4390,
      "cÃ¼k": 4391,
      "ont": 4392,
      "ĠBoÄŁ": 4393,
      "Ä±ndÄ±r": 4394,
      "Ġnerede": 4395,
      "Ġsap": 4396,
      "ĠTal": 4397,
      "ĠyapÄ±lÄ±r": 4398,
      "In": 4399,
      "rat": 4400,
      "iÅŁehir": 4401,
      "obel": 4402,
      "ĠÅŁehrin": 4403,
      "ĠiÃ§erir": 4404,
      "ĠBaÅŁkanlÄ±ÄŁÄ±": 4405,
      "Ġsekiz": 4406,
      "ĠÃ¶zgÃ¼r": 4407,
      "ĠnasÄ±l": 4408,
      "ĠCarl": 4409,
      "ĠOÄŁ": 4410,
      "eliÄŁi": 4411,
      "ĠLos": 4412,
      "ovision": 4413,
      "ĠCez": 4414,
      "cileri": 4415,
      "ĠdÄ±ÅŁÄ±": 4416,
      "ĠgÃ¼r": 4417,
      "ĠsatÄ±n": 4418,
      "Ð²": 4419,
      "Ġkanun": 4420,
      "ĠdÃ¼ÅŁÃ¼nÃ¼l": 4421,
      "Ġfak": 4422,
      "ĠMaÃ§": 4423,
      "ĠHor": 4424,
      "lamÄ±ÅŁtÄ±r": 4425,
      "ĠgÃ¶revi": 4426,
      "ling": 4427,
      "ĠolmadÄ±ÄŁÄ±": 4428,
      "anda": 4429,
      "ĠkÄ±ÅŁ": 4430,
      "oskova": 4431,
      "Ġâ": 4432,
      "Ġfamil": 4433,
      "Ġ2022": 4434,
      "ĠRichard": 4435,
      "ekteydi": 4436,
      "oÄŁol": 4437,
      "Pro": 4438,
      "ĠsÃ¶yler": 4439,
      "Bur": 4440,
      "ĠAbd": 4441,
      "Ġbitk": 4442,
      "ĠNur": 4443,
      "ĠJean": 4444,
      "Ġortalama": 4445,
      "Ġolacak": 4446,
      "gun": 4447,
      "deri": 4448,
      "erli": 4449,
      "Ġatan": 4450,
      "1995": 4451,
      "Ġrahat": 4452,
      "ĠWind": 4453,
      "ĠBro": 4454,
      "illiyet": 4455,
      "ĠDiv": 4456,
      "Ġkara": 4457,
      "ÃĸlÃ¼m": 4458,
      "ĠHollanda": 4459,
      "adir": 4460,
      "ĠyaÅŁadÄ±ÄŁÄ±": 4461,
      "ĠKanada": 4462,
      "ĠyavaÅŁ": 4463,
      "ĠyazÄ±lÄ±m": 4464,
      "oni": 4465,
      "Ġbirey": 4466,
      "ett": 4467,
      "Ġpolis": 4468,
      "medi": 4469,
      "Ġprot": 4470,
      "Ġ1963": 4471,
      "ebek": 4472,
      "ĠÄ±r": 4473,
      "Ġ1944": 4474,
      "Ġsahne": 4475,
      "ĠAngeles": 4476,
      "ĠyetiÅŁtir": 4477,
      "ĠkazanmÄ±ÅŁtÄ±r": 4478,
      "Ġdefn": 4479,
      "Ġab": 4480,
      "ĠCam": 4481,
      "Ġant": 4482,
      "ĠgÃ¶tÃ¼r": 4483,
      "Ġeylem": 4484,
      "ĠTarihi": 4485,
      "ĠCal": 4486,
      "47": 4487,
      "Ġisyan": 4488,
      "mut": 4489,
      "ail": 4490,
      "ĠÃ¶ÄŁretmen": 4491,
      "ĠPrens": 4492,
      "Ġkaf": 4493,
      "ĠSy": 4494,
      "ĠÃĩok": 4495,
      "ĠiÃ§indeki": 4496,
      "Ġdiren": 4497,
      "we": 4498,
      "ĠTak": 4499,
      "Ġmakin": 4500,
      "line": 4501,
      "ĠKen": 4502,
      "ĠCami": 4503,
      "Ġkorun": 4504,
      "dikleri": 4505,
      "ilt": 4506,
      "Ġikti": 4507,
      "ĠkÃ¶yÃ¼": 4508,
      "Ġkesim": 4509,
      "ĠyÃ¶netimi": 4510,
      "ĠHaned": 4511,
      "ĠNaz": 4512,
      "malÄ±": 4513,
      "ĠEfendi": 4514,
      "Ġmas": 4515,
      "Man": 4516,
      "tep": 4517,
      "ĠmÃ¼zisyen": 4518,
      "ĠstÃ¼dyo": 4519,
      "ĠkuÅŁat": 4520,
      "ĠalmÄ±ÅŁ": 4521,
      "emiÅŁtir": 4522,
      "abrik": 4523,
      "isiyle": 4524,
      "ĠalanÄ±nda": 4525,
      "ĠattÄ±": 4526,
      "Ġham": 4527,
      "ĠgeÃ§irdi": 4528,
      "Ġstandart": 4529,
      "ĠkaynaÄŁÄ±": 4530,
      "elli": 4531,
      "aÄŁÄ±n": 4532,
      "Ġsur": 4533,
      "ĠKore": 4534,
      "ĠÃ§Ä±kÄ±ÅŁlÄ±": 4535,
      "ÄŁÄ±ndan": 4536,
      "ĠLove": 4537,
      "geÃ§": 4538,
      "Ġdans": 4539,
      "ĠKÃ¼t": 4540,
      "ĠbaÅŁta": 4541,
      "ĠBelediyesi": 4542,
      "ĠEnstitÃ¼sÃ¼": 4543,
      "ĠUniversit": 4544,
      "Ø§Ù": 4545,
      "ĠDel": 4546,
      "lub": 4547,
      "orf": 4548,
      "krayn": 4549,
      "kÄ±r": 4550,
      "Ġbest": 4551,
      "Ġanlay": 4552,
      "ĠOp": 4553,
      "1994": 4554,
      "ĠWeb": 4555,
      "Ġdi": 4556,
      "Ġbenim": 4557,
      "ĠLou": 4558,
      "ĠRock": 4559,
      "06": 4560,
      "emiÅŁ": 4561,
      "Ġ(\"": 4562,
      "ĠGÃ¼rcistan": 4563,
      "ĠeÅŁi": 4564,
      "yasal": 4565,
      "ĠkralÄ±": 4566,
      "Ġaks": 4567,
      "mann": 4568,
      "ĠÃĸÄŁr": 4569,
      "ĠHasan": 4570,
      "ĠBank": 4571,
      "aÅŁÄ±k": 4572,
      "ĠÄ°b": 4573,
      "ecik": 4574,
      "ebi": 4575,
      "ĠkalÄ±": 4576,
      "Ek": 4577,
      "Ġkuzeyinde": 4578,
      "Ġheykel": 4579,
      "05": 4580,
      "koÃ§": 4581,
      "ĠbiÃ§imde": 4582,
      "ĠGÃ¶": 4583,
      "bar": 4584,
      "Ġyurt": 4585,
      "ozof": 4586,
      "doÄŁu": 4587,
      "Ġhid": 4588,
      "ĠÄ±s": 4589,
      "ink": 4590,
      "ĠAlan": 4591,
      "ĠyayÄ±nlandÄ±": 4592,
      "\")": 4593,
      "ĠSitesi": 4594,
      "ĠsaÄŁlayan": 4595,
      "ĠmeÅŁ": 4596,
      "ĠÃ¶ÄŁret": 4597,
      "ese": 4598,
      "edia": 4599,
      "ĠCumhurbaÅŁ": 4600,
      "eter": 4601,
      "ĠbÃ¶lÃ¼n": 4602,
      "olek": 4603,
      "ĠoluÅŁturan": 4604,
      "Ġgitti": 4605,
      "ĠFeder": 4606,
      "lamasÄ±": 4607,
      "1993": 4608,
      "Ġ1959": 4609,
      "edeni": 4610,
      "Ġsert": 4611,
      "ĠyaptÄ±r": 4612,
      "ĠbÃ¶ylece": 4613,
      "Ġarada": 4614,
      "Ã¢t": 4615,
      "ati": 4616,
      "dat": 4617,
      "Ġ1920": 4618,
      "46": 4619,
      "Ġ1940": 4620,
      "Ġsunu": 4621,
      "ĠKir": 4622,
      "ĠTÃ¼rkÃ§": 4623,
      "ora": 4624,
      "Ġmesaf": 4625,
      "ĠdÃ¶nemin": 4626,
      "ĠbarÄ±ÅŁ": 4627,
      "Ġmark": 4628,
      "ĠkÃ¶ÅŁ": 4629,
      "eliÄŁ": 4630,
      "liler": 4631,
      "Resim": 4632,
      "dak": 4633,
      "ĠGÃ¶z": 4634,
      "ayÄ±f": 4635,
      "Ġstr": 4636,
      "iklet": 4637,
      "Ġdini": 4638,
      "ĠgruplarÄ±": 4639,
      "Ġantik": 4640,
      "ĠalÄ±nan": 4641,
      "Bel": 4642,
      "Ġsad": 4643,
      "Ġetmeye": 4644,
      "amet": 4645,
      "ĠdirektÃ¶rleri": 4646,
      "ited": 4647,
      "Konusu": 4648,
      "ÄŁer": 4649,
      "1992": 4650,
      "cÄ±k": 4651,
      "ĠKÄ±s": 4652,
      "Ġhatta": 4653,
      "ĠhayatÄ±nÄ±": 4654,
      "ucusu": 4655,
      "ĠĊĊĠ": 4656,
      "dÃ¼ÄŁÃ¼": 4657,
      "Ġmevcuttur": 4658,
      "ĠCity": 4659,
      "Ġifad": 4660,
      "ĠOyunlarÄ±": 4661,
      "Ġsembol": 4662,
      "ĠSezon": 4663,
      "ugh": 4664,
      "acÄ±lÄ±k": 4665,
      "Ġunvan": 4666,
      "09": 4667,
      "uÅŁu": 4668,
      "ĠÃ¶dÃ¼lÃ¼": 4669,
      "Ġkaydet": 4670,
      "atÃ¼r": 4671,
      "nÃ¼n": 4672,
      "ĠUzun": 4673,
      "Ġcam": 4674,
      "Ġgiren": 4675,
      "ĠMehmed": 4676,
      "Ġkomedi": 4677,
      "ette": 4678,
      "iti": 4679,
      "Ġyerde": 4680,
      "Ġyasak": 4681,
      "lÄ±klar": 4682,
      "ĠÃĩan": 4683,
      "Ġilgi": 4684,
      "Ġstyle": 4685,
      "xt": 4686,
      "ĠKend": 4687,
      "ĠPolonya": 4688,
      "ĠBelediye": 4689,
      "ĠDol": 4690,
      "Ġsebebiyle": 4691,
      "ĠAlex": 4692,
      "cus": 4693,
      "ĠYarÄ±ÅŁmasÄ±": 4694,
      "ĠBunlar": 4695,
      "ĠÄ°sviÃ§": 4696,
      "arbakÄ±r": 4697,
      "ersiz": 4698,
      "madÄ±": 4699,
      "Ġac": 4700,
      "ĠYen": 4701,
      "ura": 4702,
      "alandÄ±": 4703,
      "32": 4704,
      "ĠvermiÅŁtir": 4705,
      "ĠRecords": 4706,
      "imli": 4707,
      "okulu": 4708,
      "07": 4709,
      "Ġinternet": 4710,
      "Ġalg": 4711,
      "ĠAnton": 4712,
      "Ġkah": 4713,
      "Ã§ev": 4714,
      "Ä°span": 4715,
      "ĠAll": 4716,
      "ĠPark": 4717,
      "mail": 4718,
      "ĠÃ¶ncesi": 4719,
      "Bil": 4720,
      "Ä±ÅŁma": 4721,
      "ĠdÃ¼ÅŁman": 4722,
      "Ġtutuk": 4723,
      "seri": 4724,
      "ĠgÃ¼zel": 4725,
      "Ġekip": 4726,
      "Ġ1962": 4727,
      "lÄ±klarÄ±": 4728,
      "Ġkullanarak": 4729,
      "Ġtehlik": 4730,
      "ĠyÃ¶netic": 4731,
      "Ġbazen": 4732,
      "BC": 4733,
      "ĠSup": 4734,
      "Ġpil": 4735,
      "Ġ45": 4736,
      "Yunan": 4737,
      "Ġenerj": 4738,
      "ĠbÃ¶lgesi": 4739,
      "ĠoynadÄ±ÄŁÄ±": 4740,
      "sak": 4741,
      "ÄŁe": 4742,
      "ĠYerelnet": 4743,
      "Ġbirim": 4744,
      "no": 4745,
      "Ġx": 4746,
      "Af": 4747,
      "ĠÃĸzellikle": 4748,
      "ĠÃ¶zellikleri": 4749,
      "Ġmon": 4750,
      "Ġfonksiyon": 4751,
      "prÃ¼": 4752,
      "Ã¼stÃ¼": 4753,
      "elidir": 4754,
      "fab": 4755,
      "Ġkendine": 4756,
      "85": 4757,
      "Ġkod": 4758,
      "dÄ±klarÄ±": 4759,
      "Ġdep": 4760,
      "ĠkÃ¼m": 4761,
      "ala": 4762,
      "Ġaranan": 4763,
      "ĠaraÅŁtÄ±rma": 4764,
      "menin": 4765,
      "ĠĊĠĊĠĊĠĊ": 4766,
      "Ġdakik": 4767,
      "Ä±lÄ±ÅŁ": 4768,
      "Ġbor": 4769,
      "ĠMax": 4770,
      "Ġmalzem": 4771,
      "apol": 4772,
      "landalÄ±": 4773,
      "Ø±": 4774,
      "akistan": 4775,
      "ĠadamÄ±": 4776,
      "Ã¶rÃ¼": 4777,
      "ilerde": 4778,
      "ĠyÃ¼zÃ¼nden": 4779,
      "ĠÃ§izgi": 4780,
      "Ġkasab": 4781,
      "ĠaskerÃ®": 4782,
      "ĠgÃ¶rÃ¼ntÃ¼": 4783,
      "Ä±sal": 4784,
      "ekim": 4785,
      "ĠhayatÄ±": 4786,
      "Ġerken": 4787,
      "Tr": 4788,
      "ĠDÄ±ÅŁ": 4789,
      "batÄ±": 4790,
      "ky": 4791,
      "Ġyazarlar": 4792,
      "pt": 4793,
      "ĠKaradeniz": 4794,
      "mur": 4795,
      "ĠSun": 4796,
      "alyalÄ±": 4797,
      "ĠgÃ¶rÃ¼len": 4798,
      "DiÄŁer": 4799,
      "Ġby": 4800,
      "leÅŁmiÅŁ": 4801,
      "ĠKulÃ¼b": 4802,
      "Ġgizli": 4803,
      "mesinden": 4804,
      "aÅŁÄ±": 4805,
      "Ġyapar": 4806,
      "Ġdizileri": 4807,
      "ĠCr": 4808,
      "Ġyere": 4809,
      "ĠMuharebesi": 4810,
      "akkale": 4811,
      "tip": 4812,
      "Ulus": 4813,
      "ĠkarÄ±ÅŁ": 4814,
      "ĠSelÃ§uklu": 4815,
      "65": 4816,
      "nan": 4817,
      "adiÅŁ": 4818,
      "ĠPeter": 4819,
      "AT": 4820,
      "ĠFar": 4821,
      "eyle": 4822,
      "ĠkalmÄ±ÅŁtÄ±r": 4823,
      "way": 4824,
      "ĠDen": 4825,
      "Ä±rh": 4826,
      "rafik": 4827,
      "ĊĊĠ": 4828,
      "ĠAntlaÅŁmasÄ±": 4829,
      "ĠAir": 4830,
      "ila": 4831,
      "ĠFr": 4832,
      "ĠÅŁehirler": 4833,
      "ĠKast": 4834,
      "ĠÅŁart": 4835,
      "stantin": 4836,
      "ĠPas": 4837,
      "MÃĸ": 4838,
      "iyade": 4839,
      "ĠBununla": 4840,
      "ĠÅŁarkÄ±cÄ±larÄ±": 4841,
      "Ġklasik": 4842,
      "ĠLib": 4843,
      "ĠsaÄŁlamak": 4844,
      "ect": 4845,
      "ĠAmeri": 4846,
      "Ġfilmde": 4847,
      "Ġ1941": 4848,
      "ĠDar": 4849,
      "Ġteslim": 4850,
      "ĠSad": 4851,
      "umb": 4852,
      "ĠBritanya": 4853,
      "Ġ....": 4854,
      "navut": 4855,
      "Ġmo": 4856,
      "Ġbilimsel": 4857,
      "Ġtaarruz": 4858,
      "nÃ¼": 4859,
      "ĠGrand": 4860,
      "ĠsÃ¶zcÃ¼": 4861,
      "Orta": 4862,
      "ix": 4863,
      "ĠonlarÄ±": 4864,
      "Ġdenk": 4865,
      "Ġ1943": 4866,
      "ĠoranÄ±": 4867,
      "ĠMoskova": 4868,
      "ĠÅŀir": 4869,
      "ĠkÄ±rmÄ±zÄ±": 4870,
      "Ġ185": 4871,
      "Ã¶ÄŁretim": 4872,
      "ĠinsanÄ±": 4873,
      "urgu": 4874,
      "Ġters": 4875,
      "ĠkarÅŁÄ±n": 4876,
      "ulmuÅŁ": 4877,
      "ĠFinal": 4878,
      "Ġic": 4879,
      "Ġtopluluk": 4880,
      "egor": 4881,
      "dit": 4882,
      "fÄ±": 4883,
      "ĠÃ§ab": 4884,
      "ĠÅŁun": 4885,
      "ademi": 4886,
      "ĠFranc": 4887,
      "ĠLin": 4888,
      "oft": 4889,
      "ĠZaman": 4890,
      "98": 4891,
      "bay": 4892,
      "Ġeseri": 4893,
      "HayatÄ±": 4894,
      "ĠKn": 4895,
      "ĠUniversity": 4896,
      "okratik": 4897,
      "osy": 4898,
      "ĠEurovision": 4899,
      "iplom": 4900,
      "ĠaÅŁaÄŁÄ±daki": 4901,
      "tÄ±klarÄ±": 4902,
      "Ġneredeyse": 4903,
      "onomi": 4904,
      "iÃ§ek": 4905,
      "Ġref": 4906,
      "Ä±lÄ±p": 4907,
      "ax": 4908,
      "abilen": 4909,
      "Ä±mÄ±z": 4910,
      "ĠUr": 4911,
      "ĠgÃ¼cÃ¼": 4912,
      "Ġkamu": 4913,
      "HP": 4914,
      "bas": 4915,
      "kes": 4916,
      "Ġ90": 4917,
      "Ã¼yor": 4918,
      "lenme": 4919,
      "Ġdepr": 4920,
      "lon": 4921,
      "ĠkoÅŁul": 4922,
      "Ġalmak": 4923,
      "ĠAÅŁk": 4924,
      "ĠMoÄŁol": 4925,
      "Ġmerkezli": 4926,
      "ĠÃ¶ldÃ¼rÃ¼l": 4927,
      "ĠKurum": 4928,
      "ĠtakÄ±mÄ±n": 4929,
      "iyer": 4930,
      "Ġdarb": 4931,
      "oth": 4932,
      "Äĩ": 4933,
      ")\"": 4934,
      "ĠÃ§ocuÄŁu": 4935,
      "Ġib": 4936,
      "ĠyÃ¼zÃ¶lÃ§": 4937,
      "mit": 4938,
      "Ġilgilen": 4939,
      "ĠdÃ¶nÃ¼ÅŁtÃ¼r": 4940,
      "Ġ80": 4941,
      "ĠPress": 4942,
      "liÄŁin": 4943,
      "oph": 4944,
      "ĠKing": 4945,
      "ĠDir": 4946,
      "Ġday": 4947,
      "Ġplat": 4948,
      "ĠinsanlarÄ±n": 4949,
      "ĠsÃ¶yledi": 4950,
      "96": 4951,
      "Ġkapas": 4952,
      "Ġgece": 4953,
      "Ġduvar": 4954,
      "Ġpazar": 4955,
      "Ġedilmesi": 4956,
      "Ġaraya": 4957,
      "bin": 4958,
      "udu": 4959,
      "ĠKab": 4960,
      "Yer": 4961,
      "ecektir": 4962,
      "ĠsanatÃ§Ä±sÄ±": 4963,
      "Portekiz": 4964,
      "allenin": 4965,
      "ndaki": 4966,
      "Ġgetirildi": 4967,
      "ĠÅŁÃ¶yle": 4968,
      "ĠPlan": 4969,
      "ĠartÄ±r": 4970,
      "ĠKarab": 4971,
      "Ġdam": 4972,
      "Ġolma": 4973,
      "gat": 4974,
      "lament": 4975,
      "ĠdolayÄ±sÄ±yla": 4976,
      "esir": 4977,
      "Ġmezar": 4978,
      "Ġbilinmektedir": 4979,
      "ĠDok": 4980,
      "Ġyakal": 4981,
      "ĠBelÃ§": 4982,
      "ĠkararÄ±": 4983,
      "Ġkabil": 4984,
      "ĠTeknik": 4985,
      "do": 4986,
      "ĠgÃ¶stermektedir": 4987,
      "ima": 4988,
      "Ġverilir": 4989,
      "ĠgÃ¼nlÃ¼k": 4990,
      "yolu": 4991,
      "ĠBon": 4992,
      "ĠgeÃ§iÅŁ": 4993,
      "Ġann": 4994,
      "ĠSez": 4995,
      "lanmaktadÄ±r": 4996,
      "ato": 4997,
      "abet": 4998,
      "Ġgezeg": 4999,
      "laÅŁma": 5000,
      "Ġtest": 5001,
      "ĠyapÄ±sÄ±": 5002,
      "lÄ±dÄ±r": 5003,
      "ĠFri": 5004,
      "istin": 5005,
      "ero": 5006,
      "Ġsek": 5007,
      "ĠYine": 5008,
      "ĠaÅŁam": 5009,
      "ĠYÄ±lÄ±n": 5010,
      "ĠtakÄ±mÄ±nÄ±n": 5011,
      "Ġ1930": 5012,
      "lerce": 5013,
      "Ġfilminde": 5014,
      "ĠAdana": 5015,
      "imark": 5016,
      "ĠLeague": 5017,
      "ĠÃ¼lkede": 5018,
      "imini": 5019,
      ");": 5020,
      "DÃ¼nya": 5021,
      "Ġmetr": 5022,
      "Ġtane": 5023,
      "ĠDur": 5024,
      "arch": 5025,
      "ulmuÅŁtur": 5026,
      "Ġlistesinde": 5027,
      "ĠsanatÃ§Ä±larÄ±": 5028,
      "Ġarab": 5029,
      "ĠzayÄ±f": 5030,
      "ĠNBA": 5031,
      "ĠkullanÄ±mÄ±": 5032,
      "ĠStar": 5033,
      "ĠbÃ¶lÃ¼mÃ¼nde": 5034,
      "Ġprens": 5035,
      "ĠIV": 5036,
      "nes": 5037,
      "Ġyandan": 5038,
      "ikal": 5039,
      "ijinal": 5040,
      "Ã¼phan": 5041,
      "ĠKatolik": 5042,
      "ĠBalkan": 5043,
      "97": 5044,
      "lop": 5045,
      "uÄŁ": 5046,
      "emez": 5047,
      "ĠÃľlk": 5048,
      "ĠayrÄ±l": 5049,
      "iforniya": 5050,
      "Ġ1942": 5051,
      "sÃ¼z": 5052,
      "Ġmekt": 5053,
      "ĠÅŁirketi": 5054,
      "ĠDÃ¼z": 5055,
      "Ġgerekir": 5056,
      "Le": 5057,
      "kal": 5058,
      "ĠAkademisi": 5059,
      "Ġfilozof": 5060,
      "insel": 5061,
      "ĠTah": 5062,
      "42": 5063,
      "ĠaÃ§tÄ±": 5064,
      "ĠÅŀampiyonlar": 5065,
      "ĠBaÅŁbak": 5066,
      "ĠbazÄ±larÄ±": 5067,
      "ĠhÃ¼kÃ¼mdar": 5068,
      "ĠÃ§oÄŁunlukla": 5069,
      "maÅŁÄ±k": 5070,
      "ĠGÃ¼ven": 5071,
      "Ġhiss": 5072,
      "zi": 5073,
      "alarÄ±ndan": 5074,
      "Fransa": 5075,
      "rix": 5076,
      "ĠbaÅŁarÄ±sÄ±z": 5077,
      "ĠHÃ¼seyin": 5078,
      "Kan": 5079,
      "ĠEyaleti": 5080,
      "ĠNobel": 5081,
      "ĠaÃ§Ä±kladÄ±": 5082,
      "1970": 5083,
      "ĠdavranÄ±ÅŁ": 5084,
      "ĠcivarÄ±nda": 5085,
      "cÄ±lÄ±": 5086,
      "enÃ¼z": 5087,
      "ism": 5088,
      "Ġhafif": 5089,
      "ĠDeÄŁ": 5090,
      "ĠOper": 5091,
      "Ġiklim": 5092,
      "ĠBirinci": 5093,
      "ĠSamsun": 5094,
      "lÄ±ÅŁ": 5095,
      "mel": 5096,
      "ĠsektÃ¶r": 5097,
      "Ġsaf": 5098,
      "ĠBalÄ±k": 5099,
      "ĠTo": 5100,
      "ĠTab": 5101,
      "ĠbulunmuÅŁtur": 5102,
      "lÄ±ÄŁÄ±nda": 5103,
      "ĠHÄ±r": 5104,
      "ĠkullanÄ±ldÄ±": 5105,
      "ĠsaÄŁladÄ±": 5106,
      "ĠGi": 5107,
      "Az": 5108,
      "ĠihtiyaÃ§": 5109,
      "ĠdÃ¶rdÃ¼ncÃ¼": 5110,
      "Ġfikir": 5111,
      "ĠgÃ¼neyinde": 5112,
      "ĠâĢĺ": 5113,
      "Ġserg": 5114,
      "lili": 5115,
      "Ġailesi": 5116,
      "ĠbaÅŁrol": 5117,
      "Ġnedeni": 5118,
      "kender": 5119,
      "ĠPe": 5120,
      "Ã¶rf": 5121,
      "Äģ": 5122,
      "amonu": 5123,
      "ĠÅŁim": 5124,
      "ĠkalÄ±n": 5125,
      "ĠHitler": 5126,
      "ÅŁÄ±k": 5127,
      "ĠsÄ±ral": 5128,
      "Ġproblem": 5129,
      "ĠolduÄŁundan": 5130,
      "Ġcid": 5131,
      "ĠÃ§ekir": 5132,
      "86": 5133,
      "ĠKel": 5134,
      "2013": 5135,
      "ĠÃ¼stÃ¼n": 5136,
      "03": 5137,
      "ĠMÃ¼n": 5138,
      "ilme": 5139,
      "ĠeÄŁitimi": 5140,
      "ĠĉĠĊ": 5141,
      "ĠSonr": 5142,
      "ĠØ": 5143,
      "ĠRen": 5144,
      "Ġistif": 5145,
      "TÃ¼rkÃ§e": 5146,
      "ĠDNA": 5147,
      "ĠBos": 5148,
      "Ġkans": 5149,
      "ĠÅŁah": 5150,
      "Ġaile": 5151,
      "Ġbasit": 5152,
      "ĠÃ¼retimi": 5153,
      "Almanya": 5154,
      "kg": 5155,
      "adiÅŁah": 5156,
      "Hol": 5157,
      "Ġvaz": 5158,
      "ĠÃĩev": 5159,
      "Ġ1956": 5160,
      "Ġsaha": 5161,
      "ĠÃ§apÄ±nda": 5162,
      "ĠolduÄŁuna": 5163,
      "FC": 5164,
      "bek": 5165,
      "ĠTa": 5166,
      "87": 5167,
      "1991": 5168,
      "mesinin": 5169,
      "ĠYas": 5170,
      "Ġesn": 5171,
      "ĠyapÄ±mcÄ±": 5172,
      "ĠtamamladÄ±": 5173,
      "Åį": 5174,
      "ĠÃ¼ye": 5175,
      "Ġgider": 5176,
      "ĠdiÅŁ": 5177,
      "iki": 5178,
      "Ġyemek": 5179,
      "ĠSistem": 5180,
      "ĠdÃ¼zenlem": 5181,
      "ĠWindows": 5182,
      "ĠAhmed": 5183,
      "Ġkurucu": 5184,
      "ĠbaÅŁlarÄ±nda": 5185,
      "usuf": 5186,
      "Ġ1946": 5187,
      "Ġdu": 5188,
      "ĠSem": 5189,
      "wood": 5190,
      "ĠHaÃ§lÄ±": 5191,
      "ĠgÃ¶revini": 5192,
      "lÄ±lar": 5193,
      "isti": 5194,
      "ĠÃ§Ä±kart": 5195,
      "Ġgenelde": 5196,
      "sur": 5197,
      "likleri": 5198,
      "ĠSeÃ§": 5199,
      "ys": 5200,
      "Ġdan": 5201,
      "ĠsÄ±nÄ±flandÄ±r": 5202,
      "Ġaraz": 5203,
      "Ä±lÄ±Ã§": 5204,
      "Her": 5205,
      "Ġkanat": 5206,
      "ĠsÃ¶zcÃ¼k": 5207,
      "ruk": 5208,
      "ĠHenry": 5209,
      "Ġaktif": 5210,
      "ux": 5211,
      "ander": 5212,
      "ĠDenizi": 5213,
      "mp": 5214,
      "ĠyaÅŁan": 5215,
      "Ġesas": 5216,
      "Ġmahk": 5217,
      "Ġgalib": 5218,
      "04": 5219,
      "ild": 5220,
      "ĠVe": 5221,
      "ĠHot": 5222,
      "Ġgerekli": 5223,
      "ĠKilisesi": 5224,
      "Ġsonradan": 5225,
      "Ġcis": 5226,
      "ĠKuÅŁ": 5227,
      "Ġbuldu": 5228,
      "ĠAst": 5229,
      "Ġ1958": 5230,
      "ĠSK": 5231,
      "ĠLev": 5232,
      "ĠaracÄ±lÄ±ÄŁÄ±": 5233,
      "ii": 5234,
      "luluÄŁu": 5235,
      "Ġantr": 5236,
      "amay": 5237,
      "Ġalanda": 5238,
      "Ġ1957": 5239,
      "Ġ1954": 5240,
      "paÅŁa": 5241,
      "Yeni": 5242,
      "GC": 5243,
      "ĠaraÅŁtÄ±rmalar": 5244,
      "ĠThomas": 5245,
      "lardaki": 5246,
      "Ġkum": 5247,
      "ĠtÄ±p": 5248,
      "aket": 5249,
      "ĠdoÄŁum": 5250,
      "ĠMeclisi": 5251,
      "76": 5252,
      "ĠÃ¶lÃ¼mÃ¼nden": 5253,
      "ĠEli": 5254,
      "Ġsene": 5255,
      "ĠyapmaktadÄ±r": 5256,
      "atur": 5257,
      "ĠhenÃ¼z": 5258,
      "ĠTic": 5259,
      "ĠrÃ¼t": 5260,
      "Ġasit": 5261,
      "ĠyayÄ±mlandÄ±": 5262,
      "ayÄ±p": 5263,
      "Kal": 5264,
      "ech": 5265,
      "ĠiliÅŁkin": 5266,
      "Ġmuhareb": 5267,
      "udur": 5268,
      "Ġorijinal": 5269,
      "ĠgÃ¼neÅŁ": 5270,
      "ĠTÃ¼rkmen": 5271,
      "ĠGÃ¼zel": 5272,
      "ĠyÃ¶nÃ¼nde": 5273,
      "engi": 5274,
      "ĠtÃ¶ren": 5275,
      "ĠHÃ¼kÃ»met": 5276,
      "ĠBrezilya": 5277,
      "Ġidam": 5278,
      "cilik": 5279,
      "ĠbaÄŁlÄ±dÄ±r": 5280,
      "ĠBit": 5281,
      "leyici": 5282,
      "ĠDaÄŁÄ±": 5283,
      "iver": 5284,
      "88": 5285,
      "Genel": 5286,
      "ĠMey": 5287,
      "ĠcoÄŁraf": 5288,
      "ĠAntalya": 5289,
      "miÅŁlerdir": 5290,
      "ĠbunlarÄ±n": 5291,
      "ĠinsanlarÄ±": 5292,
      "abilmektedir": 5293,
      "imin": 5294,
      "Ġaktiv": 5295,
      "ĠBlack": 5296,
      "ĠbÃ¶": 5297,
      "AlbÃ¼m": 5298,
      "ĠsÃ¶ylen": 5299,
      "ĠnumaralÄ±": 5300,
      "lÄ±ÄŁÄ±nÄ±n": 5301,
      "ĠPers": 5302,
      "ello": 5303,
      "ĠHint": 5304,
      "ĠCamii": 5305,
      "kur": 5306,
      "ĠDÃ¼ÅŁ": 5307,
      "ĠbaÅŁbak": 5308,
      "tesi": 5309,
      "vey": 5310,
      "02": 5311,
      "2014": 5312,
      "ĠIl": 5313,
      "ĠKent": 5314,
      "Ġcev": 5315,
      "ĠJackson": 5316,
      "arya": 5317,
      "Ġticari": 5318,
      "ĠMezarlÄ±ÄŁÄ±": 5319,
      "Ġkm": 5320,
      "Ġistatistik": 5321,
      "dÄ±k": 5322,
      "Mar": 5323,
      "ome": 5324,
      "BÃ¼yÃ¼k": 5325,
      "ĠolmadÄ±ÄŁÄ±nÄ±": 5326,
      "ĠaÅŁÄ±rÄ±": 5327,
      "Ġlisans": 5328,
      "gileri": 5329,
      "ĠMÃ¼hendis": 5330,
      "ĠÄ±sÄ±": 5331,
      "Ġvir": 5332,
      "Ġhastan": 5333,
      "Ġ1955": 5334,
      "orth": 5335,
      "fat": 5336,
      "ĠrÃ¶": 5337,
      "Ġdurdur": 5338,
      "Ã§isi": 5339,
      "oslav": 5340,
      "Ġolas": 5341,
      "Pr": 5342,
      "ĠAlt": 5343,
      "ĠFre": 5344,
      "Ä±yla": 5345,
      "ĠEsk": 5346,
      "ĠRed": 5347,
      "ĠdÃ¼ÅŁtÃ¼": 5348,
      "ĠadlandÄ±rÄ±lan": 5349,
      "mo": 5350,
      "isc": 5351,
      "ĠdÃ¶v": 5352,
      "ĠÄ±ÅŁ": 5353,
      "Ġsinem": 5354,
      "ĠÃ¶zelliÄŁi": 5355,
      "Ġsaray": 5356,
      "var": 5357,
      "AÅŁ": 5358,
      "Ã¼tte": 5359,
      "Ġprote": 5360,
      "ĠgeldiÄŁi": 5361,
      "Ä±b": 5362,
      "Ġdizisi": 5363,
      "ĠIr": 5364,
      "ĠKulÃ¼bÃ¼": 5365,
      "ĠendÃ¼": 5366,
      "ĠkullanÄ±cÄ±": 5367,
      "Ġmolek": 5368,
      "Ġatom": 5369,
      "rap": 5370,
      "Ġversiyon": 5371,
      "Ġhala": 5372,
      "ĠEc": 5373,
      "Ã¼d": 5374,
      "Ġtor": 5375,
      "gÃ¶r": 5376,
      "ĠFlor": 5377,
      "yetik": 5378,
      "49": 5379,
      "indi": 5380,
      "ĠUkrayn": 5381,
      "ĠPop": 5382,
      "ĠsÃ¼t": 5383,
      "Ġara": 5384,
      "ihaz": 5385,
      "giller": 5386,
      "pa": 5387,
      "ĠaslÄ±nda": 5388,
      "inÃ§": 5389,
      "Ġ1939": 5390,
      "ĠBÃ¶lÃ¼mÃ¼": 5391,
      "ĠMilletler": 5392,
      "ĠgÃ¼reÅŁ": 5393,
      "ĠÃ¶nÃ¼nde": 5394,
      "col": 5395,
      "Ġteklif": 5396,
      "anik": 5397,
      "mos": 5398,
      "unlu": 5399,
      "Ġgiderek": 5400,
      "so": 5401,
      "igh": 5402,
      "01": 5403,
      "Ġbirimleri": 5404,
      "ĠIt": 5405,
      "ĠTat": 5406,
      "ĠkÃ¼ltÃ¼rel": 5407,
      "ahiy": 5408,
      "ĠAna": 5409,
      "41": 5410,
      "Ġkurtul": 5411,
      "CA": 5412,
      "yÄ±ldÄ±z": 5413,
      "1989": 5414,
      "Ġoynam": 5415,
      "Ġir": 5416,
      "ĠHa": 5417,
      "ĠOs": 5418,
      "ĠsÃ¼rÃ¼m": 5419,
      "osta": 5420,
      "Ġtaht": 5421,
      "ĠYeÅŁil": 5422,
      "Ġlideri": 5423,
      "ĠÃ¼c": 5424,
      "Ġseri": 5425,
      "ĠgÃ¶sterdi": 5426,
      "Ġ32": 5427,
      "ĠArjantin": 5428,
      "Ġalfab": 5429,
      "Ġdiplom": 5430,
      "ĠdÃ¼ÅŁÃ¼r": 5431,
      "bah": 5432,
      "Ġortadan": 5433,
      "ĠgÃ¶rÃ¼lmektedir": 5434,
      "Ġmilletvekili": 5435,
      "Ġyaparak": 5436,
      "ĠKarak": 5437,
      "ction": 5438,
      "alÄ±lar": 5439,
      "ĠEmir": 5440,
      "Ġismini": 5441,
      "Ġbiraz": 5442,
      "ĠayrÄ±lÄ±r": 5443,
      "Ġmant": 5444,
      "ĠyÄ±lÄ±ndaki": 5445,
      "Ġsabit": 5446,
      "Ġeserleri": 5447,
      "Ġdakika": 5448,
      "Ġyetk": 5449,
      "luÄŁunu": 5450,
      "board": 5451,
      "ĠMeksik": 5452,
      "abileceÄŁi": 5453,
      "ĠsaÄŁlÄ±k": 5454,
      "ĠCap": 5455,
      "Ġ1925": 5456,
      "enis": 5457,
      "Kad": 5458,
      "Ġonay": 5459,
      "ric": 5460,
      "Ġkaybetti": 5461,
      "memiÅŁ": 5462,
      "ĠgeÃ§miÅŁtir": 5463,
      "Ġkons": 5464,
      "ĠbileÅŁ": 5465,
      "Ġgiden": 5466,
      "Eski": 5467,
      "Ġbitki": 5468,
      "Ġyapmaya": 5469,
      "ĠkÃ¶yÃ¼n": 5470,
      "Ġvoleybol": 5471,
      "ĠÃĩanakkale": 5472,
      "ĠCeph": 5473,
      "rad": 5474,
      "birliÄŁi": 5475,
      "89": 5476,
      "los": 5477,
      "otik": 5478,
      "avuz": 5479,
      "Ġzir": 5480,
      "Ġkategor": 5481,
      "ĠProj": 5482,
      "itap": 5483,
      "ĠEÅŁ": 5484,
      "Ġnet": 5485,
      "rip": 5486,
      "Ġkurucusu": 5487,
      "Ã¼ttefik": 5488,
      "Ġetmesi": 5489,
      "dere": 5490,
      "Ä±lÄ±mÄ±": 5491,
      "Ġmu": 5492,
      "mÄ±ÅŁlardÄ±r": 5493,
      "ĠKonstantin": 5494,
      "ĠgurbetÃ§iler": 5495,
      "vis": 5496,
      "ĠLo": 5497,
      "ks": 5498,
      "ĠtanÄ±": 5499,
      "ĠAkademi": 5500,
      "Ġton": 5501,
      "Ġhalde": 5502,
      "Ġsivil": 5503,
      "eddin": 5504,
      "ĠAnay": 5505,
      "mamÄ±ÅŁ": 5506,
      "aks": 5507,
      "ĠPlay": 5508,
      "Ġarka": 5509,
      "ĠAdasÄ±": 5510,
      "gam": 5511,
      "Ġtarihleri": 5512,
      "Ġevr": 5513,
      "Ġwith": 5514,
      "Ġbozuk": 5515,
      "Ã¼rt": 5516,
      "ĠnoktasÄ±": 5517,
      "gre": 5518,
      "ouse": 5519,
      "Pol": 5520,
      "ĠyaÅŁÄ±nday": 5521,
      "MÃ¼z": 5522,
      "Ġfiziksel": 5523,
      "ĠkomÅŁ": 5524,
      "ĠÃ§aÄŁr": 5525,
      "ĠFatih": 5526,
      "ĠsÃ¼rec": 5527,
      "ĠKafkas": 5528,
      "yer": 5529,
      "Ġus": 5530,
      "66": 5531,
      "Ġtedav": 5532,
      "cy": 5533,
      "emli": 5534,
      "ĠVakfÄ±": 5535,
      "Ġide": 5536,
      "ĠyaÅŁadÄ±": 5537,
      "ĠÅŁehrinde": 5538,
      "NE": 5539,
      "ĠyÃ¶netmeni": 5540,
      "ĠhakkÄ±": 5541,
      "lup": 5542,
      "Ġ1948": 5543,
      "ĠhalkÄ±": 5544,
      "ĠStev": 5545,
      "ĠÃ¶nceleri": 5546,
      "Ä±dÄ±r": 5547,
      "Top": 5548,
      "ĠDes": 5549,
      "Ġplak": 5550,
      "ĠWest": 5551,
      "ulmasÄ±": 5552,
      "rian": 5553,
      "43": 5554,
      "1988": 5555,
      "ĠÄ°smail": 5556,
      "ĠzamanÄ±nda": 5557,
      "ĠbaÅŁlamÄ±ÅŁ": 5558,
      "ĠÄ°skender": 5559,
      "New": 5560,
      "ĠBilim": 5561,
      "ĠKastamonu": 5562,
      "ĠyÃ¼kseldi": 5563,
      "ĠÄ°sviÃ§re": 5564,
      "ella": 5565,
      "layÄ±cÄ±": 5566,
      "tÄ±k": 5567,
      "ĠHit": 5568,
      "ĠiÃ§eri": 5569,
      "ĠyanlÄ±ÅŁ": 5570,
      "Ä±mÄ±yla": 5571,
      "ĠbarÄ±ndÄ±r": 5572,
      "Ġbilgiler": 5573,
      "ko": 5574,
      "ĠBarÄ±ÅŁ": 5575,
      "Ä±rÄ±m": 5576,
      "ĠAug": 5577,
      "Ġetme": 5578,
      "tim": 5579,
      "isiklet": 5580,
      "ĠArnavut": 5581,
      "AltÄ±n": 5582,
      "ĠMartin": 5583,
      "ĠNorveÃ§": 5584,
      "Ġbirbirine": 5585,
      "Ġbirinc": 5586,
      "over": 5587,
      "Ä±yÄ±": 5588,
      "Ġeline": 5589,
      "ĠMurat": 5590,
      "Ġ1953": 5591,
      "ĠteÅŁkil": 5592,
      "ave": 5593,
      "ĠbÃ¼ny": 5594,
      "amik": 5595,
      "ĠKomisyonu": 5596,
      "ĠArab": 5597,
      "ates": 5598,
      "Ġalty": 5599,
      "ase": 5600,
      "Ġ1919": 5601,
      "ĠÃ§Ä±kardÄ±": 5602,
      "Ġfamily": 5603,
      "ĠLouis": 5604,
      "Ġcinsel": 5605,
      "Ġciddi": 5606,
      "Ġnak": 5607,
      "Î±": 5608,
      "ater": 5609,
      "ĠOd": 5610,
      "ĠyarÄ±m": 5611,
      "VD": 5612,
      "Ġ70": 5613,
      "ĠKer": 5614,
      "Ġkilomet": 5615,
      "ĠHist": 5616,
      "tel": 5617,
      "ĠBeÅŁ": 5618,
      "ĠÃĸlÃ¼m": 5619,
      "92": 5620,
      "unk": 5621,
      "Ġgereken": 5622,
      "ĠgÃ¶ren": 5623,
      "ĠonlarÄ±n": 5624,
      "by": 5625,
      "iÃ§e": 5626,
      "ĠhÄ±zla": 5627,
      "Ġorada": 5628,
      "ĠulaÅŁtÄ±": 5629,
      "ĠbakÄ±mÄ±ndan": 5630,
      "ĠMÃ¼dÃ¼rlÃ¼ÄŁÃ¼": 5631,
      "ĠBoz": 5632,
      "uluÄŁ": 5633,
      "Ġgetirdi": 5634,
      "ĠMahkem": 5635,
      "cil": 5636,
      "ĠFu": 5637,
      "77": 5638,
      "Ġvb": 5639,
      "ĠrÃ¼tb": 5640,
      "rem": 5641,
      "ĠbaÅŁardÄ±": 5642,
      "tarÄ±": 5643,
      "ĠimkÃ¢n": 5644,
      "out": 5645,
      "sÃ¼": 5646,
      "Har": 5647,
      "Ġetki": 5648,
      "Ġmac": 5649,
      "ĠyÄ±lda": 5650,
      "ÅŀarkÄ±": 5651,
      "ĠAntik": 5652,
      "leyerek": 5653,
      "doÄŁan": 5654,
      "ĠTam": 5655,
      "osa": 5656,
      "ges": 5657,
      "ĠbÃ¶lgeye": 5658,
      "Ġdevrim": 5659,
      "ĠbaÅŁlangÄ±Ã§": 5660,
      "ĠKah": 5661,
      "alardan": 5662,
      "ĠtoplantÄ±": 5663,
      "ĠVic": 5664,
      "Ġsorumlu": 5665,
      "landÄ±ÄŁÄ±": 5666,
      "ĠilÃ§esi": 5667,
      "Ã¼lÃ¼k": 5668,
      "Ġastr": 5669,
      "ĠatandÄ±": 5670,
      "ĠbaÅŁv": 5671,
      "itar": 5672,
      "ĠyazÄ±lan": 5673,
      "sat": 5674,
      "ĠHey": 5675,
      "ku": 5676,
      "Ġ36": 5677,
      "ĠDÃ¶nem": 5678,
      "sas": 5679,
      "ÄŁÃ¼nÃ¼": 5680,
      "ĠFir": 5681,
      "ĠyÃ¶nel": 5682,
      "Ã³n": 5683,
      "Ġ978": 5684,
      "ĠuÄŁraÅŁ": 5685,
      "ĠÄ°sa": 5686,
      "Ġsavunma": 5687,
      "ĠGÃ¶lÃ¼": 5688,
      "Ġ500": 5689,
      "aklar": 5690,
      "esli": 5691,
      "ĠÃľn": 5692,
      "ĠDiyarbakÄ±r": 5693,
      "93": 5694,
      "Ġhac": 5695,
      "abor": 5696,
      "ubu": 5697,
      "ĠtÃ¼rleri": 5698,
      "Ġfabrik": 5699,
      "ĠgiriÅŁim": 5700,
      "ĠList": 5701,
      "ĠsÄ±caklÄ±k": 5702,
      "iÄŁin": 5703,
      "ĠiletiÅŁim": 5704,
      "ĠAraÅŁtÄ±rma": 5705,
      "ĠmÃ¼l": 5706,
      "ĠGÃ¼nÃ¼mÃ¼zde": 5707,
      "ĠKav": 5708,
      "Ġikinc": 5709,
      "ĠÃ§alÄ±ÅŁmaya": 5710,
      "ĠFransÄ±zca": 5711,
      "Yap": 5712,
      "oyu": 5713,
      "ĠBin": 5714,
      "eff": 5715,
      "Ġ1952": 5716,
      "Avus": 5717,
      "osunu": 5718,
      "ning": 5719,
      "Hal": 5720,
      "Ġ1918": 5721,
      "ĠOb": 5722,
      "ĠuÃ§uÅŁ": 5723,
      "Ñĥ": 5724,
      "ĠFÄ±r": 5725,
      "ĠbabasÄ±nÄ±n": 5726,
      "sem": 5727,
      "Ġettiler": 5728,
      "alanan": 5729,
      "1987": 5730,
      "etler": 5731,
      "ĠÃ¶ÄŁrenci": 5732,
      "Ġkuvvetleri": 5733,
      "Ġkuy": 5734,
      "ĠkatÄ±lan": 5735,
      "91": 5736,
      "Dev": 5737,
      "ĠLan": 5738,
      "ĠmÃ¼da": 5739,
      "laz": 5740,
      "erÃ§ev": 5741,
      "Ġuzman": 5742,
      "ĠDanimark": 5743,
      "Ã¼kleer": 5744,
      "ĠIntern": 5745,
      "ĠMut": 5746,
      "rit": 5747,
      "ĠadÄ±m": 5748,
      "ĠYusuf": 5749,
      "Ġbitirdi": 5750,
      "ĠilaÃ§": 5751,
      "omo": 5752,
      "ternatif": 5753,
      "ĠTBMM": 5754,
      "Ġpet": 5755,
      "liy": 5756,
      "ĠsÄ±v": 5757,
      "Ġevlendi": 5758,
      "amin": 5759,
      "ÅŁÄ±": 5760,
      "Ġtemiz": 5761,
      "Ġidari": 5762,
      "ĠSÄ±rp": 5763,
      "ĠAndre": 5764,
      "Ġih": 5765,
      "ĠNec": 5766,
      "Ġdolar": 5767,
      "Ġanti": 5768,
      "56": 5769,
      "ĠÃ¶rt": 5770,
      "asan": 5771,
      "ovi": 5772,
      "ĠDay": 5773,
      "elerle": 5774,
      "ĠGro": 5775,
      "erg": 5776,
      "Ã¼cut": 5777,
      "ĠPhil": 5778,
      "94": 5779,
      "1960": 5780,
      "Ġgalibiyet": 5781,
      "umlar": 5782,
      "Ġisten": 5783,
      "web": 5784,
      "Ä°z": 5785,
      "ĠsÃ¼rdÃ¼": 5786,
      "ĠBulgaristan": 5787,
      "Ã£": 5788,
      "Notlar": 5789,
      "ĠalÄ±ÅŁ": 5790,
      "Ġhapis": 5791,
      "ĠHanedanÄ±": 5792,
      "ĠPlat": 5793,
      "Ġbask": 5794,
      "ĠkitaplarÄ±": 5795,
      "ĠzÄ±rh": 5796,
      "ĠoluÅŁmaktadÄ±r": 5797,
      "La": 5798,
      "ĠkÃ¢": 5799,
      "Ġ1947": 5800,
      "Ġanlamda": 5801,
      "ĠgÃ¶v": 5802,
      "Ad": 5803,
      "ĠSw": 5804,
      "ĠolduklarÄ±": 5805,
      "Ã¼lebilir": 5806,
      "ĠLatin": 5807,
      "Ġtuz": 5808,
      "ĠamaÃ§lÄ±": 5809,
      "Ġ1935": 5810,
      "bilim": 5811,
      "gesi": 5812,
      "Ġklip": 5813,
      "ĠGazi": 5814,
      "Kur": 5815,
      "ĠYay": 5816,
      "Ġbucak": 5817,
      "razam": 5818,
      "Jap": 5819,
      "elle": 5820,
      "unma": 5821,
      "ĠSarÄ±": 5822,
      "Ġpas": 5823,
      "ĠyukarÄ±": 5824,
      "eten": 5825,
      "Ġtat": 5826,
      "Ġpiyan": 5827,
      "ĠTÃ¼meni": 5828,
      "Kuzey": 5829,
      "olar": 5830,
      "eus": 5831,
      "aÄŁÄ±nÄ±n": 5832,
      "ĠyÄ±lÄ±n": 5833,
      "etti": 5834,
      "ilmesini": 5835,
      "Ġkullanan": 5836,
      "tikleri": 5837,
      "ashington": 5838,
      "kol": 5839,
      "ãĥ": 5840,
      "dirne": 5841,
      "areti": 5842,
      "Ä±za": 5843,
      "ĠgirmiÅŁtir": 5844,
      "Ġrapor": 5845,
      "ĠparÃ§a": 5846,
      "Ġkart": 5847,
      "Ġkimyasal": 5848,
      "1984": 5849,
      "ĠkarmaÅŁÄ±k": 5850,
      "uva": 5851,
      "Ġ1938": 5852,
      "ings": 5853,
      "ĠaracÄ±lÄ±ÄŁÄ±yla": 5854,
      "ĠÄ°t": 5855,
      "ĠrolÃ¼": 5856,
      "\".": 5857,
      "Ġtedavi": 5858,
      "ĠNazi": 5859,
      "ĠDevr": 5860,
      "ĠarttÄ±r": 5861,
      "Ġstadyum": 5862,
      "Ġtablo": 5863,
      "Ġtesis": 5864,
      "ĠÄ°rlanda": 5865,
      "ition": 5866,
      "ikip": 5867,
      "ĠÃ¼retilen": 5868,
      "ĠElekt": 5869,
      "Ġgazeteci": 5870,
      "--": 5871,
      "ĠÃľst": 5872,
      "ven": 5873,
      "ors": 5874,
      "Ġuzan": 5875,
      "ĠÃ¶ÄŁrenciler": 5876,
      "Ġmuhtem": 5877,
      "ĠyetiÅŁ": 5878,
      "ĠBakanÄ±": 5879,
      "klarÄ±": 5880,
      "ilerden": 5881,
      "Ġetnik": 5882,
      "ĠChan": 5883,
      "ĠUnited": 5884,
      "ĠbugÃ¼nkÃ¼": 5885,
      "Ġ1936": 5886,
      "ĠKud": 5887,
      "ĠAlek": 5888,
      "Ġfay": 5889,
      "Ġparlak": 5890,
      "Ġnesn": 5891,
      ".'": 5892,
      "ĠÃ¼s": 5893,
      "endik": 5894,
      "1986": 5895,
      "ĠgÃ¼venlik": 5896,
      "zan": 5897,
      "Ġmilyar": 5898,
      "fak": 5899,
      "ĠMadrid": 5900,
      "iyana": 5901,
      "Ġnokta": 5902,
      "Ġ1921": 5903,
      "Ġkaps": 5904,
      "ĠEÄŁer": 5905,
      "dal": 5906,
      "ener": 5907,
      "akya": 5908,
      "ĠVir": 5909,
      "||||": 5910,
      "tral": 5911,
      "lerdi": 5912,
      "ĠKarl": 5913,
      "ÃĸdÃ¼l": 5914,
      "Ġreak": 5915,
      "Ġyed": 5916,
      "Ġmel": 5917,
      "ĠbaÅŁlandÄ±": 5918,
      "ĠhÃ¼kÃ»meti": 5919,
      "ĠÃ§Ã¶zÃ¼m": 5920,
      "tÄ±ktan": 5921,
      "astÄ±r": 5922,
      "ukat": 5923,
      "Ġelinde": 5924,
      "ct": 5925,
      "ĠÅŀeh": 5926,
      "Ġtahta": 5927,
      "ota": 5928,
      "ĠLi": 5929,
      "Ġaksine": 5930,
      "ĠShow": 5931,
      "Ġefsan": 5932,
      "ĠVideo": 5933,
      "elikle": 5934,
      "Ġtalep": 5935,
      "ĠÃ¶ldÃ¼rÃ¼ldÃ¼": 5936,
      "Ġdefnedilen": 5937,
      "omp": 5938,
      "ĠTep": 5939,
      "liye": 5940,
      "ĠgÃ¶rÃ¼nt": 5941,
      "Ġsubay": 5942,
      "Ġmen": 5943,
      "ĠPic": 5944,
      "Ġmuhaf": 5945,
      "ĠdÃ¼nyada": 5946,
      "Ġnot": 5947,
      "Ġmetin": 5948,
      "Ġleh": 5949,
      "ĠÃĸmer": 5950,
      "Ġreddet": 5951,
      "Ġoynayan": 5952,
      "ĠBig": 5953,
      "Ġedin": 5954,
      "fe": 5955,
      "ĠCla": 5956,
      "Ġsonuna": 5957,
      "portaj": 5958,
      "Ġsenary": 5959,
      "uvarÄ±": 5960,
      "liÄŁinin": 5961,
      "ugoslav": 5962,
      "avar": 5963,
      "Ġbirisi": 5964,
      "ĠÃ¶de": 5965,
      "darÄ±": 5966,
      "ĠMic": 5967,
      "don": 5968,
      "ografisi": 5969,
      "Daha": 5970,
      "ĠiÅŁlev": 5971,
      "Ġfre": 5972,
      "ĠÄ°skoÃ§": 5973,
      "Ġ1922": 5974,
      "ĠKart": 5975,
      "58": 5976,
      "Ġvermek": 5977,
      "1985": 5978,
      "Ġdalg": 5979,
      "Ġdis": 5980,
      "ĠNev": 5981,
      "Ġtelef": 5982,
      "ĠeriÅŁ": 5983,
      "ĠÃ§alÄ±ÅŁÄ±r": 5984,
      "ĠProgram": 5985,
      "luluk": 5986,
      "edildi": 5987,
      "Ġkadro": 5988,
      "Ġdefnedilenler": 5989,
      "bistan": 5990,
      "ĠsonlarÄ±nda": 5991,
      "Ġgelebilir": 5992,
      "âĢĿ,": 5993,
      "74": 5994,
      "edy": 5995,
      "Ġdilleri": 5996,
      "Ġbirden": 5997,
      "Ġgerektir": 5998,
      "Ġbl": 5999,
      "ĠBern": 6000,
      "ipp": 6001,
      "field": 6002,
      "ĠbÄ±raktÄ±": 6003,
      "ersin": 6004,
      "ĠJac": 6005,
      "ĠkazandÄ±r": 6006,
      "ĠEdward": 6007,
      "KulÃ¼p": 6008,
      "Ġdokuz": 6009,
      "BÃ¶l": 6010,
      "Ġpot": 6011,
      "ĠbaÅŁlÄ±ca": 6012,
      "ĠÅŀark": 6013,
      "ĠKonya": 6014,
      "Dem": 6015,
      "ĠdÃ¼zenli": 6016,
      "ĠFilistin": 6017,
      "ĠTÄ±p": 6018,
      "ĠtakÄ±mÄ±na": 6019,
      "ĠaktÃ¶r": 6020,
      "ĠyayÄ±nladÄ±": 6021,
      "ĠSelim": 6022,
      "ĠKurumu": 6023,
      "ĠBelÃ§ika": 6024,
      "ĠVil": 6025,
      "ydi": 6026,
      "Ġdurumunda": 6027,
      "ĠÃ¼cret": 6028,
      "ĠYÃ¶netmen": 6029,
      "leyic": 6030,
      "Ġfeth": 6031,
      "ĠyazÄ±lmÄ±ÅŁ": 6032,
      "chester": 6033,
      "Ã¼ce": 6034,
      "Ġyans": 6035,
      "espor": 6036,
      "dÃ¼z": 6037,
      "ĠDiz": 6038,
      "ĠOrhan": 6039,
      "Ġmay": 6040,
      "ĠTw": 6041,
      "100": 6042,
      "Ã¼cu": 6043,
      "ĠVenedik": 6044,
      "ĠromanÄ±": 6045,
      "MillÃ®": 6046,
      "ĠmÃ¼dÃ¼r": 6047,
      "Î¿": 6048,
      "ĠbÃ¼r": 6049,
      "demir": 6050,
      "Ġbesteci": 6051,
      "ĠiÃ§i": 6052,
      "ĠFederasyonu": 6053,
      "Ġgiydi": 6054,
      "Ġsanayi": 6055,
      "Ġila": 6056,
      "Ã¶yl": 6057,
      "Ġ1949": 6058,
      "ĠBilg": 6059,
      "Ġalmaya": 6060,
      "ĠHastan": 6061,
      "ĠÃ§erÃ§ev": 6062,
      "abilmek": 6063,
      "etleri": 6064,
      "GÃ¼ney": 6065,
      "ĠÃ¢": 6066,
      "vanÄ±": 6067,
      "ush": 6068,
      "ĠÃĩay": 6069,
      "Ġpilot": 6070,
      "ĠSaf": 6071,
      "lerindeki": 6072,
      "AP": 6073,
      "ffy": 6074,
      "ĠÂ": 6075,
      "lendiÄŁi": 6076,
      "mekteydi": 6077,
      "Ġez": 6078,
      "Ġbiz": 6079,
      "Ġ#": 6080,
      "idir": 6081,
      "ĠHarry": 6082,
      "Ġ1933": 6083,
      "Ġmuhal": 6084,
      "Ġoynan": 6085,
      "ĠkayÄ±p": 6086,
      "Ġdisk": 6087,
      "ĠSor": 6088,
      "MS": 6089,
      "ĠgÃ¶m": 6090,
      "ĠStadyum": 6091,
      "ĠkiÅŁisel": 6092,
      "ardin": 6093,
      "Ġenf": 6094,
      "71": 6095,
      "ĠbÃ¶yle": 6096,
      "ĠsarÄ±": 6097,
      "ĠHem": 6098,
      "ĠÃ§ekildi": 6099,
      "ĠCer": 6100,
      "ĠBud": 6101,
      "Ġisteyen": 6102,
      "ĠDal": 6103,
      "ĠboÄŁ": 6104,
      "ĠÅŁar": 6105,
      "Ġ1951": 6106,
      "ĠSand": 6107,
      "arsÃ§a": 6108,
      "ĠgÃ¼nÃ¼mÃ¼ze": 6109,
      "hel": 6110,
      "ĠAdÄ±": 6111,
      "uss": 6112,
      "ĠaralarÄ±nda": 6113,
      "ĠkÄ±l": 6114,
      "ĠprogramÄ±": 6115,
      "Ġbunlar": 6116,
      "ĠJoseph": 6117,
      "ĠYazar": 6118,
      "ball": 6119,
      "ĠAla": 6120,
      "onun": 6121,
      "ĠÅŀiir": 6122,
      "unus": 6123,
      "Ġtay": 6124,
      "tain": 6125,
      "Ġtoplumsal": 6126,
      "Ġyarg": 6127,
      "ĠyaÅŁÄ±ndayken": 6128,
      "Å¡": 6129,
      "ĠDam": 6130,
      "ĠBeyaz": 6131,
      "ĠKaliforniya": 6132,
      "vik": 6133,
      "Ä°talya": 6134,
      "Ġnehir": 6135,
      "opa": 6136,
      "pÄ±nar": 6137,
      "Ġistasyon": 6138,
      "ilmesine": 6139,
      "ĠoluÅŁumlar": 6140,
      "ĠdeÄŁeri": 6141,
      "ĠsoÄŁuk": 6142,
      "2015": 6143,
      "ĠgeniÅŁlet": 6144,
      "ĠtapÄ±n": 6145,
      "III": 6146,
      "500": 6147,
      "ayarak": 6148,
      "ĠuzunluÄŁ": 6149,
      "Ġtakv": 6150,
      "ĠYÃ¶net": 6151,
      "ĠSiyas": 6152,
      "Ġyaprak": 6153,
      "ĠStal": 6154,
      "ĠArdÄ±ndan": 6155,
      "ĠFrancis": 6156,
      "ĠEskiÅŁehir": 6157,
      "mun": 6158,
      "ĠDef": 6159,
      "iyeri": 6160,
      "ĠgerektiÄŁini": 6161,
      "iÅŁli": 6162,
      "Ġarke": 6163,
      "likler": 6164,
      "ilerinde": 6165,
      "ĠOkyan": 6166,
      "ĠMacaristan": 6167,
      "Ġazalt": 6168,
      "ĠmÃ¼s": 6169,
      "Ġkalp": 6170,
      "tikten": 6171,
      "ederal": 6172,
      "ĠGe": 6173,
      "ĠLim": 6174,
      "ĠMaked": 6175,
      "ĠUl": 6176,
      "elendir": 6177,
      "ĠBÃ¼yÃ¼kÅŁehir": 6178,
      "Ab": 6179,
      "ĠÅŁarkÄ±cÄ±lar": 6180,
      "dae": 6181,
      "ĠSilah": 6182,
      "83": 6183,
      "ower": 6184,
      "ĠfarklÄ±lÄ±k": 6185,
      "andÄ±r": 6186,
      "ĠKurtul": 6187,
      "Ġdost": 6188,
      "ĠDa": 6189,
      "Olay": 6190,
      "Ġevlilik": 6191,
      "ĠkÄ±t": 6192,
      "Ġfutbolcudur": 6193,
      "ÙĪ": 6194,
      "isindeki": 6195,
      "iÅŁki": 6196,
      "ĠbastÄ±r": 6197,
      "ĠKÄ±ÅŁ": 6198,
      "ĠSS": 6199,
      "Ä±ma": 6200,
      "arlÄ±": 6201,
      "ĠaltÄ±ndaki": 6202,
      "adÄ±klarÄ±": 6203,
      "Ġikisi": 6204,
      "Ġeserler": 6205,
      "ĠyaÅŁanan": 6206,
      "iÅŁkin": 6207,
      "ĠyapÄ±lar": 6208,
      "ĠEst": 6209,
      "ĠKonseyi": 6210,
      "72": 6211,
      "Ġanay": 6212,
      "Ġince": 6213,
      "http": 6214,
      "uri": 6215,
      "Ġ2023": 6216,
      "ĠAdalarÄ±": 6217,
      "ĠDom": 6218,
      "ĠdÄ±ÅŁarÄ±": 6219,
      "ĠÃĩÃ¼nkÃ¼": 6220,
      "ake": 6221,
      "iro": 6222,
      "Tur": 6223,
      "jik": 6224,
      "ĠdalÄ±nda": 6225,
      "ĠbaÅŁkent": 6226,
      "cÄ±lÄ±ÄŁÄ±": 6227,
      "ĠCephesi": 6228,
      "ĠBaba": 6229,
      "Ġtarihte": 6230,
      "ĠhalkÄ±n": 6231,
      "Ã¼lmÃ¼ÅŁtÃ¼r": 6232,
      "ĠÄ±ÅŁÄ±": 6233,
      "ĠhaklarÄ±": 6234,
      "ĠtanÄ±ÅŁ": 6235,
      "ois": 6236,
      "Ġfinalde": 6237,
      "ĠSinema": 6238,
      "Ġbenzeri": 6239,
      "vir": 6240,
      "zade": 6241,
      "ĠGol": 6242,
      "ĠPek": 6243,
      "ĠbÃ¶lgeler": 6244,
      "64": 6245,
      "ĠAg": 6246,
      "ube": 6247,
      "ete": 6248,
      "Ġterim": 6249,
      "asÄ±dÄ±r": 6250,
      "ĠRol": 6251,
      "ĠÃĩel": 6252,
      "Ġpap": 6253,
      "lass": 6254,
      "ĠsÃ¶zleÅŁme": 6255,
      "Ġbirlikleri": 6256,
      "2016": 6257,
      "ĠÅŁampiyonu": 6258,
      "Ġhaned": 6259,
      "cer": 6260,
      "ĠChar": 6261,
      "ĠMih": 6262,
      "irli": 6263,
      "ĠFa": 6264,
      "BirleÅŁik": 6265,
      "mey": 6266,
      "inans": 6267,
      "Ġuc": 6268,
      "Ġfi": 6269,
      "ĠbÃ¼yÃ¼": 6270,
      "ĠyapÄ±mcÄ±sÄ±": 6271,
      "lemesi": 6272,
      "ĠkiÅŁidir": 6273,
      "Ġ1923": 6274,
      "rosoft": 6275,
      "ÄŁinin": 6276,
      "eyrek": 6277,
      "ĠkullandÄ±": 6278,
      "Am": 6279,
      "Ġdenilen": 6280,
      "Ġces": 6281,
      "Ġatlet": 6282,
      "iantep": 6283,
      "avy": 6284,
      "cia": 6285,
      "ĠfaktÃ¶r": 6286,
      "81": 6287,
      "ple": 6288,
      "ĠLeon": 6289,
      "Ġ1926": 6290,
      "Ġmim": 6291,
      "ĠtÃ¼rlÃ¼": 6292,
      "Sin": 6293,
      "ĠÃ¶zerk": 6294,
      "Arap": 6295,
      "wig": 6296,
      "ĠbirliÄŁi": 6297,
      "ĠsÃ¶zleÅŁ": 6298,
      "Ġ1924": 6299,
      "sp": 6300,
      "ĠniÅŁ": 6301,
      "ĠdolaÅŁ": 6302,
      "1983": 6303,
      "Ã±": 6304,
      "ĠMit": 6305,
      "Ġmensup": 6306,
      "ĠTrans": 6307,
      "ĠsÄ±nÄ±fÄ±": 6308,
      "ĠakÄ±l": 6309,
      "ĠKoca": 6310,
      "ekler": 6311,
      "Ġnef": 6312,
      "round": 6313,
      "Ä°tal": 6314,
      "ĠdeÄŁiÅŁken": 6315,
      "Ġ1934": 6316,
      "Ġgelecek": 6317,
      "ĠMeclis": 6318,
      "back": 6319,
      "ream": 6320,
      "ĠalbÃ¼mÃ¼n": 6321,
      "ĠModern": 6322,
      "Ġob": 6323,
      "ps": 6324,
      "uncu": 6325,
      "onomik": 6326,
      "Ġotomobil": 6327,
      "alimanÄ±": 6328,
      "Ġyola": 6329,
      "yaspor": 6330,
      "uni": 6331,
      "Ã¼rler": 6332,
      "Ġ33": 6333,
      "okol": 6334,
      "ĠhÃ¼cre": 6335,
      "Ġkahraman": 6336,
      "lie": 6337,
      "Ġnahiy": 6338,
      "ĠadlandÄ±rÄ±lÄ±r": 6339,
      "lanarak": 6340,
      "1982": 6341,
      "Ġsemt": 6342,
      "ĠYÄ±lmaz": 6343,
      "Ġkarbon": 6344,
      "atÄ±cÄ±": 6345,
      "ĠNapol": 6346,
      "OS": 6347,
      "Ġmektup": 6348,
      "ras": 6349,
      "ĠetkileÅŁ": 6350,
      "Ġsonu": 6351,
      "ĠkullandÄ±ÄŁÄ±": 6352,
      "Ġrenkli": 6353,
      "ĠAllah": 6354,
      "ĠHanÄ±m": 6355,
      "Ġelektron": 6356,
      "icago": 6357,
      "ĠÃ§alÄ±ÅŁtÄ±r": 6358,
      "Ġkov": 6359,
      "aÄŁÄ±nda": 6360,
      "Kat": 6361,
      "Ġfrom": 6362,
      "ĠTÃ¼rkler": 6363,
      "ĠBabasÄ±": 6364,
      "ular": 6365,
      "ĠÃ¶ÄŁ": 6366,
      "Ġzamanlarda": 6367,
      "Ġvil": 6368,
      "ĠRod": 6369,
      "Ġcen": 6370,
      "Ġkadros": 6371,
      "ĠBirÃ§ok": 6372,
      "ĠÃľniversitesinde": 6373,
      "Mac": 6374,
      "tes": 6375,
      "84": 6376,
      "span": 6377,
      "Ġseyir": 6378,
      "paz": 6379,
      "ĠYal": 6380,
      "Ġ1937": 6381,
      "AR": 6382,
      "Ã¼zg": 6383,
      "Ġedilebilir": 6384,
      "Ġantren": 6385,
      "Ġunsur": 6386,
      "53": 6387,
      "Ġcihaz": 6388,
      "Ġfiyat": 6389,
      "ĠGram": 6390,
      "ĠÃ¶nder": 6391,
      "ĠÄ°nternet": 6392,
      "idge": 6393,
      "larca": 6394,
      "ĠHacÄ±": 6395,
      "umsuz": 6396,
      "Ġmakal": 6397,
      "Ġteknoloj": 6398,
      "ĠMusic": 6399,
      "ĠAmerikalÄ±lar": 6400,
      "ĠyaÅŁamaktadÄ±r": 6401,
      "ferans": 6402,
      "ĠBasketbol": 6403,
      "Ä±lmasÄ±na": 6404,
      "Ãĸzel": 6405,
      "ls": 6406,
      "ĠÃ¶nde": 6407,
      "ĠbatÄ±sÄ±nda": 6408,
      "Ġrej": 6409,
      "eck": 6410,
      "mara": 6411,
      "ĠCD": 6412,
      "Ġtipi": 6413,
      "Ġstrate": 6414,
      "eton": 6415,
      "ĠBlu": 6416,
      "tifak": 6417,
      "ÄŁÃ¼nde": 6418,
      "Ã¼man": 6419,
      "'''": 6420,
      "ses": 6421,
      "emesi": 6422,
      "esun": 6423,
      "ĠkaÃ§Ä±r": 6424,
      "Ġop": 6425,
      "ĠHayat": 6426,
      "Ġceph": 6427,
      "Ġyerli": 6428,
      "scar": 6429,
      "ĠHÄ±rvat": 6430,
      "Ġap": 6431,
      "Ã§ilik": 6432,
      "ilenin": 6433,
      "ĠkapsamÄ±nda": 6434,
      "kent": 6435,
      "Ġvad": 6436,
      "Ġeksik": 6437,
      "guesi": 6438,
      "Ġkenti": 6439,
      "ĠRay": 6440,
      "ĠgelmiÅŁ": 6441,
      "ĠÃ§atÄ±ÅŁmalar": 6442,
      "itir": 6443,
      "ja": 6444,
      "okul": 6445,
      "Ġ300": 6446,
      "ĠaÃ§Ä±ldÄ±": 6447,
      "ĠÃ§ekilmiÅŁ": 6448,
      "Ġgruplar": 6449,
      "ĠUkrayna": 6450,
      "tÃ¼rk": 6451,
      "ĠWashington": 6452,
      "Ġincelen": 6453,
      "Ã£o": 6454,
      "Ġfreguesi": 6455,
      "Ä°talyan": 6456,
      "Ġdavet": 6457,
      "ahisar": 6458,
      "Ġert": 6459,
      "ĠBilimler": 6460,
      "ĠKÄ±sa": 6461,
      "gusal": 6462,
      "ĠNiÅŁ": 6463,
      "82": 6464,
      "sis": 6465,
      "Ġ*": 6466,
      "ĠÃ§alÄ±ÅŁmasÄ±": 6467,
      "yl": 6468,
      "Ġpan": 6469,
      "ĠaracÄ±": 6470,
      "ĠNight": 6471,
      "Ġanlamlara": 6472,
      "gur": 6473,
      "Ġfestiv": 6474,
      "áĥĲ": 6475,
      "YÄ±l": 6476,
      "ĠSir": 6477,
      "ĠÃľl": 6478,
      "ĠhoÅŁ": 6479,
      "Ġpetrol": 6480,
      "Ġistifa": 6481,
      "ĠdoÄŁusunda": 6482,
      "DE": 6483,
      "ĠYÃ¶netim": 6484,
      "ĠDoÄŁan": 6485,
      "ĠTicaret": 6486,
      "ĠdÃ¶k": 6487,
      "ĠHaf": 6488,
      "Ġmaddesi": 6489,
      "Ä°ÅŁ": 6490,
      "ĠKÄ±rÄ±m": 6491,
      "ĠkÃ¼tl": 6492,
      "ĠMid": 6493,
      "Ġend": 6494,
      "Ã¶nÃ¼": 6495,
      "ĠBa": 6496,
      "Ã¼lasyon": 6497,
      "aklarÄ±": 6498,
      "ĠAziz": 6499,
      "Ġep": 6500,
      "tÃ¼rÃ¼": 6501,
      "ĠCumhurbaÅŁkanÄ±": 6502,
      "dÄ±rÄ±m": 6503,
      "ĠsÃ¼rede": 6504,
      "Futbol": 6505,
      "esh": 6506,
      "ĠAÃ§Ä±k": 6507,
      "ope": 6508,
      "oto": 6509,
      "aza": 6510,
      "laÅŁÄ±k": 6511,
      "ĠkalÄ±ntÄ±": 6512,
      "ĠsaÃ§": 6513,
      "Ġhayran": 6514,
      "57": 6515,
      "ĠnÃ¼fusunun": 6516,
      "ĠbÃ¶lgenin": 6517,
      "gÃ¼ne": 6518,
      "ĠLife": 6519,
      "ĠMimar": 6520,
      "ĠyaÄŁÄ±ÅŁ": 6521,
      "Ä±ÄŁ": 6522,
      "ĠkapÄ±": 6523,
      "ĠÃ¼niversite": 6524,
      "ĠgeliÅŁmiÅŁ": 6525,
      "Ġsistemleri": 6526,
      "ĠSoci": 6527,
      "54": 6528,
      "Sh": 6529,
      "ĠSarayÄ±": 6530,
      "ĠyeÅŁil": 6531,
      "Ġherkes": 6532,
      "ĠtakÄ±mÄ±nda": 6533,
      "Ġkendisinin": 6534,
      "hisar": 6535,
      "ĠrÃ¶portaj": 6536,
      "ĠsÃ¼s": 6537,
      "Ġolmakla": 6538,
      "ĠFried": 6539,
      "Ġ)": 6540,
      "ĠbeÄŁ": 6541,
      "ela": 6542,
      "ĠEdirne": 6543,
      "ĠRomanya": 6544,
      "Ġbirer": 6545,
      "ĠWill": 6546,
      "azÄ±ÄŁ": 6547,
      "lÃ¼ÄŁÃ¼nÃ¼": 6548,
      "rin": 6549,
      "ĠKÃ¶rf": 6550,
      "lanabilir": 6551,
      "ĠVad": 6552,
      "ehrin": 6553,
      "Ãĸr": 6554,
      "landiya": 6555,
      "ider": 6556,
      "Ġbilinmeyen": 6557,
      "rab": 6558,
      "ĠColle": 6559,
      "Ð´": 6560,
      "MaÃ§": 6561,
      "Ġiyil": 6562,
      "amayan": 6563,
      "akal": 6564,
      "Ev": 6565,
      "ĠBarb": 6566,
      "larÄ±dÄ±r": 6567,
      "ĠTopluluÄŁu": 6568,
      "Ġbeklen": 6569,
      "Ã¶mÃ¼r": 6570,
      "Ä±lmasÄ±nÄ±": 6571,
      "ĠPrix": 6572,
      "ĠMS": 6573,
      "Ã¼nc": 6574,
      "ĠDÃ¼n": 6575,
      "Ġasist": 6576,
      "ĠAbdullah": 6577,
      "1979": 6578,
      "ĠAsker": 6579,
      "Ð¹": 6580,
      "Ġkuz": 6581,
      "ezya": 6582,
      "ĠiliÅŁkileri": 6583,
      "Ġdramatik": 6584,
      "arn": 6585,
      "ĠYo": 6586,
      "ĠKudÃ¼s": 6587,
      "ebe": 6588,
      "Ġkentinde": 6589,
      "Ġnumaraya": 6590,
      "Ġgay": 6591,
      "ĠTRT": 6592,
      "ĠcumhurbaÅŁ": 6593,
      "dun": 6594,
      "ĠaÃ§Ä±lan": 6595,
      "ĠAmerican": 6596,
      "Ger": 6597,
      "ĠMev": 6598,
      "Ġtehdit": 6599,
      "onia": 6600,
      "ĠendÃ¼str": 6601,
      "ĠromanlarÄ±": 6602,
      "Ã¢z": 6603,
      "ĠBalÄ±kesir": 6604,
      "Ã»m": 6605,
      "oper": 6606,
      "Ġcep": 6607,
      "Ġvermektedir": 6608,
      "Ġsezonda": 6609,
      "Ġgerilim": 6610,
      "ĠNet": 6611,
      "Ã¼yordu": 6612,
      "ĠpadiÅŁah": 6613,
      "ensis": 6614,
      "ĠNa": 6615,
      "Ġtarihinin": 6616,
      "Ġkarakteri": 6617,
      "Ġkapasit": 6618,
      "azz": 6619,
      "ĠdoÄŁan": 6620,
      "ĠinanÃ§": 6621,
      "ations": 6622,
      "68": 6623,
      "ĠÃľy": 6624,
      "ĠWilliams": 6625,
      "AC": 6626,
      "ĠYan": 6627,
      "menler": 6628,
      "Ġ1927": 6629,
      "ĠkullanÄ±labilir": 6630,
      "ĠArapÃ§a": 6631,
      "ĠRap": 6632,
      "Ġkurulu": 6633,
      "ĠÃ¶ykÃ¼": 6634,
      "ĠSaray": 6635,
      "Ġzirv": 6636,
      "ĠMilli": 6637,
      "Ġgazetec": 6638,
      "Ġotob": 6639,
      "opolis": 6640,
      "\"'": 6641,
      "lasÄ±": 6642,
      "ĠBunlarÄ±n": 6643,
      "ĠsÄ±n": 6644,
      "Ġbulundur": 6645,
      "Ġbaraj": 6646,
      "ĠiliÅŁki": 6647,
      "AÄŁ": 6648,
      "lenerek": 6649,
      "ĠAj": 6650,
      "ĠyanÄ±na": 6651,
      "Ãĸn": 6652,
      "Ġemr": 6653,
      "1981": 6654,
      "Su": 6655,
      "Ġbank": 6656,
      "ĠRon": 6657,
      "ĠÃ¶lÃ¼mÃ¼": 6658,
      "ĠTÃ¼r": 6659,
      "mesinde": 6660,
      "Ġbirimi": 6661,
      "ĠReal": 6662,
      "ĠKurtuluÅŁ": 6663,
      "ĠÃĩorum": 6664,
      "ĠÄ±rk": 6665,
      "ĠChamp": 6666,
      "ĠYarÄ±m": 6667,
      "mat": 6668,
      "ebilecek": 6669,
      "Ġolaylar": 6670,
      "Ġiktidar": 6671,
      "lamÄ±ÅŁ": 6672,
      "Ġokun": 6673,
      "San": 6674,
      "omer": 6675,
      "odoks": 6676,
      "ĠEmin": 6677,
      "Ġmahkem": 6678,
      "izmin": 6679,
      "Ùħ": 6680,
      "ĠBek": 6681,
      "Ġraki": 6682,
      "Ġgec": 6683,
      "FF": 6684,
      "biy": 6685,
      "aborat": 6686,
      "rum": 6687,
      "ĠÄ°mparatoru": 6688,
      "ĠkullanÄ±larak": 6689,
      "ĠKutsal": 6690,
      "ĠgÃ¼mÃ¼ÅŁ": 6691,
      "Ġmahallesi": 6692,
      "ĠErmenistan": 6693,
      "rey": 6694,
      "ĠmaÃ§Ä±na": 6695,
      "ĠgeÃ§erek": 6696,
      "Ġvarsay": 6697,
      "Ġserisi": 6698,
      "Ġ1914": 6699,
      "incir": 6700,
      "liliÄŁi": 6701,
      "ĠÅŀen": 6702,
      "ĠAng": 6703,
      "ĠÄ°dar": 6704,
      "ĠEb": 6705,
      "ĠÃ§evresinde": 6706,
      "67": 6707,
      "ding": 6708,
      "Ġdey": 6709,
      "ĠyapÄ±lmaktadÄ±r": 6710,
      "ĠkatÄ±lÄ±m": 6711,
      "ĠtÃ¼ket": 6712,
      "Ġevren": 6713,
      "Ġsergil": 6714,
      "áĥĺ": 6715,
      "isyenler": 6716,
      "ĠsÃ¼rdÃ¼rdÃ¼": 6717,
      "ĠaÃ§Ä±dan": 6718,
      "ool": 6719,
      "ĠnÃ¼fusun": 6720,
      "ĠBl": 6721,
      "ĠulaÅŁÄ±m": 6722,
      "ĠSmith": 6723,
      "Ġzafer": 6724,
      "Ä±lÄ±ÄŁÄ±nda": 6725,
      "tuÄŁu": 6726,
      "ĠkatÄ±": 6727,
      "ĠAtlan": 6728,
      "rop": 6729,
      "ĠGÃ¼mÃ¼ÅŁ": 6730,
      "ĠgÃ¼nde": 6731,
      "Ġoperasyon": 6732,
      "tek": 6733,
      "Ġum": 6734,
      "ĠRef": 6735,
      "ĠaydÄ±n": 6736,
      "Ġbelirtti": 6737,
      "ĠRam": 6738,
      "Ġedip": 6739,
      "oza": 6740,
      "ĠÃ¼retic": 6741,
      "lish": 6742,
      "kor": 6743,
      "ĠsahipliÄŁi": 6744,
      "ikast": 6745,
      "Ä±ldÄ±ÄŁÄ±nda": 6746,
      "ĠesnasÄ±nda": 6747,
      "Ġpen": 6748,
      "ĠViyana": 6749,
      "car": 6750,
      "ĠCas": 6751,
      "ĠNas": 6752,
      "eferi": 6753,
      "ture": 6754,
      "ĠsaÄŁlay": 6755,
      "ĠyÃ¶rÃ¼n": 6756,
      "ĠKomÃ¼nist": 6757,
      "Ä°spanya": 6758,
      "Ġgezegen": 6759,
      "Ġyerleri": 6760,
      "ĠKonser": 6761,
      "ijital": 6762,
      "Ġreklam": 6763,
      "ĠalÄ±nmÄ±ÅŁtÄ±r": 6764,
      "Ġliman": 6765,
      "ĠanlayÄ±ÅŁ": 6766,
      "63": 6767,
      "ĠyazÄ±lÄ±": 6768,
      "ansiyel": 6769,
      "Ġhareketi": 6770,
      "ĠOkul": 6771,
      "Ġkalk": 6772,
      "ĠÄ°lÃ§e": 6773,
      "Ġdile": 6774,
      "Ġdar": 6775,
      "ien": 6776,
      "Ġederler": 6777,
      "ĠMeksika": 6778,
      "Ġfinans": 6779,
      "ÅŁiv": 6780,
      "onna": 6781,
      "52": 6782,
      "batÄ±sÄ±nda": 6783,
      "Ne": 6784,
      "ĠDevrimi": 6785,
      "SÃ¶z": 6786,
      "ekleri": 6787,
      "ĠZey": 6788,
      "ediÄŁini": 6789,
      "Ġsahil": 6790,
      "ilmiÅŁti": 6791,
      "ĠMi": 6792,
      "ĠvazgeÃ§": 6793,
      "ilmeye": 6794,
      "ĠkapalÄ±": 6795,
      "Ġgruba": 6796,
      "Ġrekor": 6797,
      "rown": 6798,
      "ĠKayseri": 6799,
      "ĠBoÄŁaz": 6800,
      "ĠgerekÃ§": 6801,
      "Ġtarihsel": 6802,
      "YÃ¶n": 6803,
      "ĠSlov": 6804,
      "ĠÃ¶nceden": 6805,
      "Ġfos": 6806,
      "1974": 6807,
      "51": 6808,
      "Ġzamanlar": 6809,
      "ĠLee": 6810,
      "ĠFi": 6811,
      "ĠSinan": 6812,
      "ĠoynamÄ±ÅŁtÄ±r": 6813,
      "memektedir": 6814,
      "Ah": 6815,
      "Ġkalab": 6816,
      "ĠdaÄŁÄ±lÄ±m": 6817,
      "Ġelektronik": 6818,
      "Ġmodeli": 6819,
      "ĠMahall": 6820,
      "ĠdÃ¼ÄŁ": 6821,
      "estra": 6822,
      "Olaylar": 6823,
      "cÄ±nÄ±n": 6824,
      "Ġtec": 6825,
      "ĠInter": 6826,
      "ĠKÃ¶pr": 6827,
      "nak": 6828,
      "Ġbundan": 6829,
      "ĠKos": 6830,
      "igÃ¼r": 6831,
      "tihar": 6832,
      "Ġyeterli": 6833,
      "61": 6834,
      "uke": 6835,
      "Ġsporcular": 6836,
      "Ġmesaj": 6837,
      "raÄŁÄ±": 6838,
      "erisi": 6839,
      "adalÄ±": 6840,
      "ĠÄ°d": 6841,
      "Ġonlara": 6842,
      "ĠKurt": 6843,
      "pen": 6844,
      "ĠSoy": 6845,
      "Ġhaft": 6846,
      "mud": 6847,
      "win": 6848,
      "ĠDu": 6849,
      "Ã§Ä±lÄ±k": 6850,
      "kanlÄ±ÄŁÄ±": 6851,
      "ABD": 6852,
      "ĠvÃ¼cut": 6853,
      "ĠyaklaÅŁÄ±m": 6854,
      "Ġistedi": 6855,
      "ĠKurul": 6856,
      "ĠSat": 6857,
      "ico": 6858,
      "ĠTol": 6859,
      "Ġrak": 6860,
      "ilerinden": 6861,
      "Ġprof": 6862,
      "ĠÅŁer": 6863,
      "Ġ37": 6864,
      "lÃ¼ÄŁe": 6865,
      "ĠÃ¼lkelerde": 6866,
      "Ġailesinin": 6867,
      "ĠÃĩelebi": 6868,
      "ĠOsmanlÄ±lar": 6869,
      "Ġgemi": 6870,
      "ĠÃ§ekti": 6871,
      "Ġtoplamda": 6872,
      "Tan": 6873,
      "Ġemekli": 6874,
      "Ġodak": 6875,
      "ĠJim": 6876,
      "ref": 6877,
      "Ġavukat": 6878,
      "Ġmiktarda": 6879,
      "ĠOÄŁuz": 6880,
      "ĠeÄŁer": 6881,
      "ĠkarÅŁÄ±laÅŁtÄ±r": 6882,
      "ĠvÃ¼cu": 6883,
      "top": 6884,
      "ĠkullanÄ±r": 6885,
      "ozgat": 6886,
      "Ġkoruy": 6887,
      "yken": 6888,
      "ĠbaÅŁladÄ±ÄŁÄ±": 6889,
      "ĠBundan": 6890,
      "ĠTour": 6891,
      "ĠyakÄ±nlarÄ±nda": 6892,
      "Ġedecek": 6893,
      "ĠÃ¶tÃ¼rÃ¼": 6894,
      "ilerle": 6895,
      "Ġkuram": 6896,
      "sÃ¶z": 6897,
      "Ġesir": 6898,
      "ĠgeÃ§ici": 6899,
      "ĠÅŁunlardÄ±r": 6900,
      "erie": 6901,
      "ĠÅŁampiyonluÄŁu": 6902,
      "ĠAda": 6903,
      "ĠtÃ¼f": 6904,
      "Ġceza": 6905,
      "On": 6906,
      "antik": 6907,
      "ĠtakÄ±myÄ±ldÄ±z": 6908,
      "chen": 6909,
      "Ġ1932": 6910,
      "iÅŁe": 6911,
      "Uz": 6912,
      "oid": 6913,
      "ĠBob": 6914,
      "wa": 6915,
      "Ãº": 6916,
      "Ġgeneral": 6917,
      "Ð¼": 6918,
      "ÄŁur": 6919,
      "ĠRa": 6920,
      "Ä±lmasÄ±yla": 6921,
      "ĠCup": 6922,
      "ĠInternational": 6923,
      "ute": 6924,
      "ĠgÃ¶revlendir": 6925,
      "ason": 6926,
      "ĠSonra": 6927,
      "essiz": 6928,
      "Ġister": 6929,
      "oston": 6930,
      "ĠOne": 6931,
      "Ġversiyonu": 6932,
      "heim": 6933,
      "1975": 6934,
      "ĠrahatsÄ±z": 6935,
      "gili": 6936,
      "esk": 6937,
      "ĠDep": 6938,
      "aker": 6939,
      "1976": 6940,
      "ĠhatÄ±r": 6941,
      "text": 6942,
      "Ġkutsal": 6943,
      "layÄ±p": 6944,
      "Ġmeclis": 6945,
      "ĠmÃ¼r": 6946,
      "ĠMary": 6947,
      "esto": 6948,
      "Ġarz": 6949,
      "ĠakÄ±ÅŁ": 6950,
      "Mal": 6951,
      "Mad": 6952,
      "ĠSek": 6953,
      "Ġihr": 6954,
      "Ġ1917": 6955,
      "ĠsavaÅŁÄ±": 6956,
      "SÃ¼per": 6957,
      "1978": 6958,
      "ĠKÃ¼re": 6959,
      "Ġanaliz": 6960,
      "ison": 6961,
      "ĠBankasÄ±": 6962,
      "Ġanim": 6963,
      "Ġyir": 6964,
      "ĠBart": 6965,
      "UluslararasÄ±": 6966,
      "Ġyitir": 6967,
      "Ġ38": 6968,
      "ĠbasketbolcularÄ±": 6969,
      "ebilen": 6970,
      "1973": 6971,
      "omen": 6972,
      "Ġcem": 6973,
      "ĠSaint": 6974,
      "arlÄ±k": 6975,
      "Ġsahipti": 6976,
      "aÄŁÄ±na": 6977,
      "Ġoyunc": 6978,
      "ĠkiÅŁiden": 6979,
      "Ä±sÄ±ndaki": 6980,
      "ĠÃ§Ä±kmÄ±ÅŁ": 6981,
      "urgusal": 6982,
      "Ġsite": 6983,
      "ĠÅŁÃ¼p": 6984,
      "ĠkÃ¶yde": 6985,
      "ĠbakÄ±ÅŁ": 6986,
      "ĠÃ§evre": 6987,
      "ĠNat": 6988,
      "ĠÅŁirketleri": 6989,
      "attle": 6990,
      "ĠStadyumu": 6991,
      "Ġrakip": 6992,
      "Ġtanr": 6993,
      "cher": 6994,
      "ĠvarlÄ±ÄŁÄ±": 6995,
      "ĠMahkemesi": 6996,
      "Grup": 6997,
      "ĠÅŀeyh": 6998,
      "ĠHik": 6999,
      "aten": 7000,
      "ĠGran": 7001,
      "Ã¼mÃ¼ne": 7002,
      "ĠinsanÄ±n": 7003,
      "ĠsayfasÄ±": 7004,
      "Ġtez": 7005,
      "1968": 7006,
      "ĠstatÃ¼sÃ¼": 7007,
      "Ġorganizasyon": 7008,
      "ĠÃ¶nÃ¼ne": 7009,
      "abileceÄŁini": 7010,
      "Ġaf": 7011,
      "Ġku": 7012,
      "ĠattÄ±ÄŁÄ±": 7013,
      "ĠgerÃ§ekleÅŁen": 7014,
      "ĠMik": 7015,
      "AS": 7016,
      "Ġkolon": 7017,
      "ĠBunlardan": 7018,
      "Ġte": 7019,
      "Ġ1912": 7020,
      "Ã¼lÃ¼r": 7021,
      "ĠWr": 7022,
      "ĠhayatÄ±na": 7023,
      "adasÄ±": 7024,
      "ĠVictor": 7025,
      "Ä°kinci": 7026,
      "Ġsakat": 7027,
      "ĠLive": 7028,
      "ĠadÄ±nÄ±n": 7029,
      "Ġpozisyon": 7030,
      "Ġdoldur": 7031,
      "ĠKalesi": 7032,
      "ĠkatkÄ±da": 7033,
      "Ġpark": 7034,
      "Ġkli": 7035,
      "ĠhastalÄ±": 7036,
      "BaÅŁarÄ±": 7037,
      "ĠTokat": 7038,
      "Ġediyor": 7039,
      "Ġ1929": 7040,
      "Ġsinir": 7041,
      "Ġgrubunun": 7042,
      "Ġseyahat": 7043,
      "ĠTro": 7044,
      "Ġdevletin": 7045,
      "ĠSuper": 7046,
      "TÃľ": 7047,
      "incan": 7048,
      "Ġdeprem": 7049,
      "pat": 7050,
      "KÄ±r": 7051,
      "ĠKahraman": 7052,
      "ology": 7053,
      "rd": 7054,
      "odern": 7055,
      "ĠtamamÄ±": 7056,
      "ĠÃ§oÄŁunluÄŁu": 7057,
      "Ġhidro": 7058,
      "ĠHall": 7059,
      "abak": 7060,
      "Ġolmadan": 7061,
      "ĠÃ§ocuklarÄ±": 7062,
      "ĠmadalyalÄ±": 7063,
      "ĠYugoslav": 7064,
      "ĠZel": 7065,
      "ĠEser": 7066,
      "ĠTekn": 7067,
      "ĠFe": 7068,
      "Ġhalka": 7069,
      "mes": 7070,
      "ĠfÃ¼z": 7071,
      "Ġmaruz": 7072,
      "eta": 7073,
      "lic": 7074,
      "1977": 7075,
      "ĠKem": 7076,
      "ĠetrafÄ±nda": 7077,
      "ikat": 7078,
      "ĠArk": 7079,
      "Ġdenklem": 7080,
      "Ġtelefon": 7081,
      "EL": 7082,
      "ĠDÃ¶rt": 7083,
      "ĠBugÃ¼n": 7084,
      "ogle": 7085,
      "ĠhakkÄ±ndaki": 7086,
      "ÅŁak": 7087,
      "Ġkilise": 7088,
      "ĠAugust": 7089,
      "ĠOscar": 7090,
      "Ġprotein": 7091,
      "ĠRoy": 7092,
      "Ġtepk": 7093,
      "veya": 7094,
      "ĠDanimarka": 7095,
      "59": 7096,
      "ĠTut": 7097,
      "siy": 7098,
      "ĠYunanca": 7099,
      "ua": 7100,
      "ĠdanÄ±ÅŁ": 7101,
      "aÄŁÄ±nÄ±": 7102,
      "Ġduyur": 7103,
      "ĠkulÃ¼pleri": 7104,
      "ĠÅŁef": 7105,
      "ĠLuc": 7106,
      "ĠÃĩift": 7107,
      "ĠÃ§Ä±ktÄ±ÄŁÄ±": 7108,
      "ĠÃ¶zgÃ¼": 7109,
      "Ä°slam": 7110,
      "ĠDaÄŁlarÄ±": 7111,
      "Ġzamanla": 7112,
      "ĠEng": 7113,
      "ĠhÃ¢l": 7114,
      "Bey": 7115,
      "Ġsent": 7116,
      "ektif": 7117,
      "ĠPen": 7118,
      "oul": 7119,
      "iste": 7120,
      "Un": 7121,
      "Ä±lmaya": 7122,
      "Ġemir": 7123,
      "ĠoluÅŁturduÄŁu": 7124,
      "Ġdayanan": 7125,
      "ĠyayÄ±nlan": 7126,
      "Yah": 7127,
      "ĠAlmanca": 7128,
      "ĠResmÃ®": 7129,
      "Eser": 7130,
      "Sovyet": 7131,
      "Ġcumhuriyet": 7132,
      "makla": 7133,
      "ĠkalÄ±r": 7134,
      "rev": 7135,
      "ĠKe": 7136,
      "Ġsezonun": 7137,
      "mac": 7138,
      "emedi": 7139,
      "Tem": 7140,
      "Ġcol": 7141,
      "ĠsÄ±rasÄ±yla": 7142,
      "Ñĭ": 7143,
      "62": 7144,
      "Ġkomutan": 7145,
      "ĠYardÄ±mcÄ±": 7146,
      "Ġkanser": 7147,
      "ado": 7148,
      "ĠmolekÃ¼l": 7149,
      "ĠKa": 7150,
      "Ġordusunun": 7151,
      "Ġolumlu": 7152,
      "ĠÃ¶dÃ¼lÃ¼nÃ¼": 7153,
      "Th": 7154,
      "Ġplatform": 7155,
      "ER": 7156,
      "Ġkimya": 7157,
      "ĠEge": 7158,
      "69": 7159,
      "ÅŁam": 7160,
      "ody": 7161,
      "Ġkoruma": 7162,
      "ĠÃ§Ã¶k": 7163,
      "ĠLaz": 7164,
      "Ġikili": 7165,
      "Ġyolcu": 7166,
      "mad": 7167,
      "Ã¡n": 7168,
      "ĠBuffy": 7169,
      "Ä±da": 7170,
      "onyalÄ±": 7171,
      "Kurgusal": 7172,
      "alog": 7173,
      "Ġotor": 7174,
      "1950": 7175,
      "Ġetik": 7176,
      "ground": 7177,
      "Ġimza": 7178,
      "Ġdergisi": 7179,
      "Tarihi": 7180,
      "Ġ34": 7181,
      "ronz": 7182,
      "ĠiliÅŁkiler": 7183,
      "âĢľ": 7184,
      "ben": 7185,
      "Rusya": 7186,
      "Ġolun": 7187,
      "Ġerdi": 7188,
      "lob": 7189,
      "Ġperson": 7190,
      "Ġekran": 7191,
      "ĠkomutanÄ±": 7192,
      "ĠGÃ¼venlik": 7193,
      "ĠSavunma": 7194,
      "caÄŁÄ±": 7195,
      "lamaya": 7196,
      "urlar": 7197,
      "ceÄŁi": 7198,
      "ĠdeÄŁildi": 7199,
      "Ġkarakterler": 7200,
      "Ben": 7201,
      "aga": 7202,
      "ĠGiresun": 7203,
      "ĠmÃ¼ÅŁ": 7204,
      "ÃĸlÃ¼mler": 7205,
      "ady": 7206,
      "ĠtanÄ±nan": 7207,
      "ĠJones": 7208,
      "Ġreform": 7209,
      "ĠyÃ¶nlendir": 7210,
      "ĠimzaladÄ±": 7211,
      "ĠÃ§eÅŁ": 7212,
      "ĠFakÃ¼ltesinde": 7213,
      "ĠprofesÃ¶r": 7214,
      "KÄ±z": 7215,
      "Ġederken": 7216,
      "lit": 7217,
      "ĠanlaÅŁma": 7218,
      "DoÄŁumlar": 7219,
      "ĠolmadÄ±": 7220,
      "Ġcami": 7221,
      "ederasyon": 7222,
      "imal": 7223,
      "ĠedildiÄŁi": 7224,
      "ium": 7225,
      "imet": 7226,
      "abeth": 7227,
      "1972": 7228,
      "ĠSaÄŁlÄ±k": 7229,
      "Bul": 7230,
      "Kay": 7231,
      "estor": 7232,
      "ulus": 7233,
      "ĠalanlarÄ±": 7234,
      "Ġuzanan": 7235,
      "asÄ±z": 7236,
      "ĠsÄ±rt": 7237,
      "Kaz": 7238,
      "ĠDair": 7239,
      "1971": 7240,
      "ĠStan": 7241,
      "ĠAlp": 7242,
      "ĠChicago": 7243,
      "CD": 7244,
      "ĠCa": 7245,
      "ĠkarÄ±ÅŁtÄ±r": 7246,
      "uda": 7247,
      "ĠDis": 7248,
      "Ã¼llÃ¼": 7249,
      "ĠDVD": 7250,
      "Ġalma": 7251,
      "ĠFilmin": 7252,
      "Ã§Ä±lar": 7253,
      "emier": 7254,
      "cilerin": 7255,
      "Ġdurumlarda": 7256,
      "ĠSosyalist": 7257,
      "ĠkatÄ±ldÄ±ÄŁÄ±": 7258,
      "ĠbeÅŁinci": 7259,
      "ĠBillboard": 7260,
      "Ġ1931": 7261,
      "IA": 7262,
      "ĠÃĸzgÃ¼r": 7263,
      "ÄŁÄ±nÄ±n": 7264,
      "ĠkarÄ±sÄ±": 7265,
      "ĠTeÅŁ": 7266,
      "ĠyapÄ±lmasÄ±": 7267,
      "ĠdesteÄŁi": 7268,
      "ilya": 7269,
      "une": 7270,
      "ĠÃ¶lmÃ¼ÅŁtÃ¼r": 7271,
      "vanya": 7272,
      "2018": 7273,
      "ĠHel": 7274,
      "ĠPir": 7275,
      "Ġbelirgin": 7276,
      "ĠJan": 7277,
      "Ġbeden": 7278,
      "ito": 7279,
      "Ġmilliyet": 7280,
      "mamÄ±ÅŁtÄ±r": 7281,
      "79": 7282,
      "ĠArtvin": 7283,
      "ĠJer": 7284,
      "ilendir": 7285,
      "ĠoluÅŁturdu": 7286,
      "mik": 7287,
      "Ġalternatif": 7288,
      "ĠdeÄŁiÅŁim": 7289,
      "ĠPiyade": 7290,
      "ĠmÃ¼ziÄŁ": 7291,
      "Ä°ngiltere": 7292,
      "Ġsergilen": 7293,
      "ĠCat": 7294,
      "lemeye": 7295,
      "ĠoluÅŁuyordu": 7296,
      "ĠBirleÅŁmiÅŁ": 7297,
      "madÄ±ÄŁÄ±": 7298,
      "ĠNational": 7299,
      "Ġnadir": 7300,
      "ĠÃ¶rneÄŁin": 7301,
      "ĠChampion": 7302,
      "film": 7303,
      "ikler": 7304,
      "ĠolacaktÄ±r": 7305,
      "ĠortasÄ±nda": 7306,
      "ym": 7307,
      "Ġsezonunun": 7308,
      "ĠunvanÄ±": 7309,
      "ets": 7310,
      "ĠyapÄ±ldÄ±ÄŁÄ±": 7311,
      "ĠDergisi": 7312,
      "ĠUygul": 7313,
      "Ġsenesinde": 7314,
      "ĠÃ§Ã¶": 7315,
      "ÃľÃ§": 7316,
      "ĠseÃ§imlerinde": 7317,
      "ĠyaÅŁamÄ±ÅŁ": 7318,
      "Ġsorum": 7319,
      "Ġ1915": 7320,
      "Antik": 7321,
      "ĠAÄŁa": 7322,
      "ograp": 7323,
      "ĠgeliÅŁim": 7324,
      "ĠDevrim": 7325,
      "Ġboyu": 7326,
      "Ġmutf": 7327,
      "BazÄ±": 7328,
      "steri": 7329,
      "Ġlak": 7330,
      "liÄŁinden": 7331,
      "ceÄŁini": 7332,
      "sizlik": 7333,
      "SavaÅŁ": 7334,
      "izmi": 7335,
      "antaj": 7336,
      "amam": 7337,
      "ĠbuluÅŁ": 7338,
      "ĠtarafÄ±nda": 7339,
      "tures": 7340,
      "Ġkaybol": 7341,
      "ĠÅ": 7342,
      "ĠKoÃ§": 7343,
      "Ġolanak": 7344,
      "ĠKomutanlÄ±ÄŁÄ±": 7345,
      "ĠPier": 7346,
      "ĠvarlÄ±k": 7347,
      "Ġharit": 7348,
      "iskop": 7349,
      "73": 7350,
      "ĠaÅŁk": 7351,
      "ĠMaria": 7352,
      "ordin": 7353,
      "Ġ1916": 7354,
      "ship": 7355,
      "Ġ...": 7356,
      "Ä±lma": 7357,
      "ĠBan": 7358,
      "Ġolumsuz": 7359,
      "ĠyÃ¼zde": 7360,
      "ĠiÅŁg": 7361,
      "ĠOnun": 7362,
      "Ġzehir": 7363,
      "ĠgerÃ§ekleÅŁtirilen": 7364,
      "ĠFred": 7365,
      "omi": 7366,
      "Ġmevki": 7367,
      "karahisar": 7368,
      "iner": 7369,
      "ĠKum": 7370,
      "ĠAfgan": 7371,
      "temi": 7372,
      "ĠnÃ¶": 7373,
      "Ġtabak": 7374,
      "ĠmaÄŁlup": 7375,
      "ĠbÃ¼nyesinde": 7376,
      "ĠPot": 7377,
      "lerdeki": 7378,
      "Ġ120": 7379,
      "iyecek": 7380,
      "ĠsÄ±nÄ±rlÄ±": 7381,
      "ĠRuh": 7382,
      "ĠhazÄ±rlÄ±k": 7383,
      "Ġwebs": 7384,
      "Ġ63": 7385,
      "ĠLiga": 7386,
      "doÄŁusunda": 7387,
      "ĠSong": 7388,
      "1969": 7389,
      "Ġbirik": 7390,
      "ĠDor": 7391,
      "Ġyasal": 7392,
      "ĠtaÅŁÄ±ndÄ±": 7393,
      "Sam": 7394,
      "soy": 7395,
      "ĠHun": 7396,
      "ude": 7397,
      "amamÄ±ÅŁtÄ±r": 7398,
      "1967": 7399,
      "ĠsÄ±f": 7400,
      "ound": 7401,
      "ristal": 7402,
      "ĠMol": 7403,
      "ĠartÄ±ÅŁ": 7404,
      "ies": 7405,
      "ĠPhilip": 7406,
      "ĠÃĤ": 7407,
      "ĠgÃ¶rÃ¼r": 7408,
      "ques": 7409,
      "ografik": 7410,
      "Re": 7411,
      "Ġ()": 7412,
      "ĠClub": 7413,
      "malarÄ±nÄ±": 7414,
      "Ġmikro": 7415,
      "ĠYaÄŁ": 7416,
      "ĠKÃ¶yÃ¼": 7417,
      "Ġderecede": 7418,
      "akta": 7419,
      "Ġcilt": 7420,
      "ĠyazmÄ±ÅŁtÄ±r": 7421,
      "Ġaskerleri": 7422,
      "ĠÄ±ÅŁÄ±n": 7423,
      "luÄŁun": 7424,
      "gir": 7425,
      "Ġsuyu": 7426,
      "onlar": 7427,
      "Ġyerlerde": 7428,
      "Ġkenar": 7429,
      "Ġyenilg": 7430,
      "alel": 7431,
      "adis": 7432,
      "ĠGÃ¶n": 7433,
      "Ġcevap": 7434,
      "eÄŁin": 7435,
      "ysa": 7436,
      "ĠsÃ¼resi": 7437,
      "Sp": 7438,
      "Ġetkinlik": 7439,
      "ĠyaÅŁamÄ±": 7440,
      "oda": 7441,
      "vel": 7442,
      "ĠanÄ±lan": 7443,
      "ĠprodÃ¼k": 7444,
      "rama": 7445,
      "DoÄŁu": 7446,
      "ĠKardeÅŁ": 7447,
      "ĠÃľzer": 7448,
      "ĠdÃ¼zenlen": 7449,
      "ĠHÃ¼r": 7450,
      "ĠHaber": 7451,
      "ĠHaw": 7452,
      "ovan": 7453,
      "Ġrah": 7454,
      "ĠeÅŁlik": 7455,
      "Ġelement": 7456,
      "ĠÃ¶yk": 7457,
      "Ġsisteminin": 7458,
      "ĠsilahlÄ±": 7459,
      "ĠsÄ±vÄ±": 7460,
      "ĠÃ¶ncesinde": 7461,
      "usa": 7462,
      "ilmez": 7463,
      "ĠbÃ¶lgelerde": 7464,
      "ĠDonan": 7465,
      "Ä±sÄ±t": 7466,
      "Ã¼zgÃ¢r": 7467,
      "ĠnÃ¼kleer": 7468,
      "ĠÃ§iÃ§ek": 7469,
      "able": 7470,
      "ĠTime": 7471,
      "Ġbahsed": 7472,
      "ardo": 7473,
      "ĠLit": 7474,
      "Ġevlen": 7475,
      "hak": 7476,
      "Î½": 7477,
      "ĠbaÅŁk": 7478,
      "Ã¢tÄ±": 7479,
      "Ġbol": 7480,
      "ĠKes": 7481,
      "ando": 7482,
      "ĠsÄ±klÄ±kla": 7483,
      "Ġyasa": 7484,
      "okrasi": 7485,
      "Don": 7486,
      "Ġded": 7487,
      "ĠÃĸl": 7488,
      "Ġolmaya": 7489,
      "ĠyaÅŁlÄ±": 7490,
      "Ġkendilerini": 7491,
      "ĠdayalÄ±": 7492,
      "ĠFriedrich": 7493,
      "ĠHakk": 7494,
      "GÃ¶r": 7495,
      "Ġrisk": 7496,
      "ĠCeza": 7497,
      "ĠAlf": 7498,
      "ĠÅŁirketler": 7499,
      "Ġhatt": 7500,
      "ĠGaziantep": 7501,
      "áĥĲáĥ": 7502,
      "ĠBest": 7503,
      "ĠÃ¶lÃ¼": 7504,
      "Ġ--": 7505,
      "ĠyatÄ±rÄ±m": 7506,
      "ĠAdalet": 7507,
      "Ġmir": 7508,
      "ĠunvanÄ±nÄ±": 7509,
      "Cumhur": 7510,
      "ĠÃ¶zgÃ¼n": 7511,
      "Ġker": 7512,
      "inn": 7513,
      "ĠiÅŁÃ§i": 7514,
      "ĠyÃ¼kselt": 7515,
      "ĠBerk": 7516,
      "2020": 7517,
      "ution": 7518,
      "ĠLiv": 7519,
      "Ġokum": 7520,
      "GB": 7521,
      "gor": 7522,
      "Ġno": 7523,
      "alandÄ±r": 7524,
      "ĠkulÃ¼bÃ¼": 7525,
      "ĠLes": 7526,
      "ĠgÃ¼ncel": 7527,
      "ĠKole": 7528,
      "ĠyÃ¼rÃ¼y": 7529,
      "ĠStudi": 7530,
      "indir": 7531,
      "ĠteÅŁvik": 7532,
      "ĠOrtodoks": 7533,
      "Et": 7534,
      "tris": 7535,
      "ĠtÄ±r": 7536,
      "ĠkarÄ±ÅŁÄ±k": 7537,
      "AM": 7538,
      "memiÅŁtir": 7539,
      "aze": 7540,
      "oter": 7541,
      "ukur": 7542,
      "Ġuzat": 7543,
      "lasman": 7544,
      "dy": 7545,
      "Î¹": 7546,
      "Ġdedi": 7547,
      "Ġkale": 7548,
      "ĠgeÃ§irdiÄŁi": 7549,
      "uck": 7550,
      "ĠkarÅŁÄ±lÄ±ÄŁÄ±nda": 7551,
      "ĠBÃ¼l": 7552,
      "ĠaralÄ±k": 7553,
      "ĠkÄ±smen": 7554,
      "onik": 7555,
      "ĠSSC": 7556,
      "ĠyayÄ±mladÄ±": 7557,
      "kÃ¶": 7558,
      "ĠLak": 7559,
      "Ġorganiz": 7560,
      "Lig": 7561,
      "mediÄŁi": 7562,
      "Ġevrim": 7563,
      "ĠÃ§ekim": 7564,
      "Ġsolo": 7565,
      "ĠtarihÃ§i": 7566,
      "ĠiliÅŁkili": 7567,
      "ĠKulÃ¼p": 7568,
      "well": 7569,
      "Ġistih": 7570,
      "ĠkavuÅŁ": 7571,
      "mosfer": 7572,
      "rut": 7573,
      "ĠGod": 7574,
      "Ġonur": 7575,
      "Ġbirinin": 7576,
      "ĠMiss": 7577,
      "ĠYazÄ±": 7578,
      "Ġopera": 7579,
      "Ġsebebi": 7580,
      "ĠpolitikacÄ±": 7581,
      "ĠFinlandiya": 7582,
      "oya": 7583,
      "die": 7584,
      "ĠtakÄ±mlarÄ±": 7585,
      "ĠgeliÅŁtirilen": 7586,
      "ĠÃ§ay": 7587,
      "dÃ¼kten": 7588,
      "ĠsavaÅŁÄ±n": 7589,
      "Ġartan": 7590,
      "ozom": 7591,
      "ĠPanzer": 7592,
      "ĠAnn": 7593,
      "ĠilÃ§esinde": 7594,
      "alli": 7595,
      "ĠKÃ¼b": 7596,
      "ĠgÃ¶nderildi": 7597,
      "ĠgÃ¶revine": 7598,
      "Star": 7599,
      "ĠUÃ§": 7600,
      "ĠManisa": 7601,
      "itÃ¶r": 7602,
      "ĠdÃ¼k": 7603,
      "ĠgÃ¶stermiÅŁtir": 7604,
      "ĠHalil": 7605,
      "ĠÃ§alÄ±ÅŁmalarÄ±na": 7606,
      "ĠinÅŁaat": 7607,
      "ĠEp": 7608,
      "2017": 7609,
      "ĠgÃ¶rÃ¼ldÃ¼": 7610,
      "dr": 7611,
      "emektedir": 7612,
      "ĠÃ¼rÃ¼nleri": 7613,
      "ĠÅŀey": 7614,
      "ĠKomitesi": 7615,
      "Ġmuhtemelen": 7616,
      "ĠmaÃ§a": 7617,
      "ĠayrÄ±lmÄ±ÅŁtÄ±r": 7618,
      "TP": 7619,
      "makam": 7620,
      "ĠÅŀu": 7621,
      "menleri": 7622,
      "ĠbÃ¶lgesinin": 7623,
      "ĠKongr": 7624,
      "Ġnitelik": 7625,
      "ĠElazÄ±ÄŁ": 7626,
      "ĠdoÄŁrult": 7627,
      "ĠCemiyeti": 7628,
      "Ġban": 7629,
      "ĠgÃ¶sterildi": 7630,
      "etiyle": 7631,
      "ĠkalmÄ±ÅŁ": 7632,
      "Ġfestival": 7633,
      "ĠadayÄ±": 7634,
      "ĠseÃ§imleri": 7635,
      "ĠdÃ¼ÅŁÃ¼nÃ¼lmektedir": 7636,
      "Ġbirisidir": 7637,
      "alarla": 7638,
      "Ġ400": 7639,
      "ĠGenellikle": 7640,
      "EÄŁ": 7641,
      "ĠNic": 7642,
      "Ġov": 7643,
      "itif": 7644,
      "ĠkÃ¶pek": 7645,
      "ĠarasÄ±na": 7646,
      "Ġ75": 7647,
      "ĠTib": 7648,
      "Ġaittir": 7649,
      "Ġkariyerine": 7650,
      "ĠbÃ¶lÃ¼mde": 7651,
      "ĠSes": 7652,
      "bel": 7653,
      "Ġmi": 7654,
      "Ġrefer": 7655,
      "ĠÃ¼stÃ¼nde": 7656,
      "ĠÃľÃ§Ã¼ncÃ¼": 7657,
      "ĠkomÅŁu": 7658,
      "esiz": 7659,
      "abilmesi": 7660,
      "ĠbaÄŁlandÄ±": 7661,
      "elerek": 7662,
      "Ġfayd": 7663,
      "Ġterimi": 7664,
      "ĠÃĩÄ±k": 7665,
      "Ġailenin": 7666,
      "Ġ150": 7667,
      "ĠtÃ¼rÃ¼dÃ¼r": 7668,
      "ĠanlamÄ±": 7669,
      "ayeti": 7670,
      "inus": 7671,
      "edisi": 7672,
      "Ġesin": 7673,
      "ĠMarmara": 7674,
      "ĠAteÅŁ": 7675,
      "ĠGor": 7676,
      "ĠHistory": 7677,
      "Ã¼mr": 7678,
      "Ġaj": 7679,
      "ĠAtina": 7680,
      "Ġfer": 7681,
      "Ġkendilerine": 7682,
      "ĠuÃ§aÄŁÄ±": 7683,
      "isiz": 7684,
      "Ġkarakterleri": 7685,
      "ĠkatÄ±lmÄ±ÅŁtÄ±r": 7686,
      "Bay": 7687,
      "ĠYozgat": 7688,
      "ietnam": 7689,
      "ÙĨ": 7690,
      "Ġdolu": 7691,
      "ĠTev": 7692,
      "ĠHow": 7693,
      "ĠHil": 7694,
      "ĠTy": 7695,
      "Ġkalma": 7696,
      "ĠDÄ±ÅŁiÅŁleri": 7697,
      "ĠAvrup": 7698,
      "ĠbaÅŁarÄ±sÄ±": 7699,
      "Ġmeydan": 7700,
      "emeye": 7701,
      "Ġyoluna": 7702,
      "Ġhayal": 7703,
      "ĠseÃ§ilen": 7704,
      "ĠkuÅŁlar": 7705,
      "ĠsÃ¶mÃ¼r": 7706,
      "ĠolmasÄ±nÄ±": 7707,
      "ĠSonuÃ§": 7708,
      "1966": 7709,
      "ĠÃ¶t": 7710,
      "ĠfigÃ¼r": 7711,
      "ĠLor": 7712,
      "ĠMeydan": 7713,
      "Ñı": 7714,
      "Ġbiriydi": 7715,
      "eller": 7716,
      "ĠRev": 7717,
      "ĠaraÅŁtÄ±rmacÄ±": 7718,
      "Ġvilayet": 7719,
      "Ãĩin": 7720,
      "ĠkÄ±smÄ±nda": 7721,
      "ĠolasÄ±lÄ±k": 7722,
      "ĠyÃ¶ntemi": 7723,
      "Ġuyum": 7724,
      "Ġetkileri": 7725,
      "ĠSus": 7726,
      "ĠUp": 7727,
      "ĠaylarÄ±nda": 7728,
      "ĠnÃ¼fuslu": 7729,
      "ĠHastanesi": 7730,
      ";\"|": 7731,
      "Ġfelsefe": 7732,
      "ĠTes": 7733,
      "ĠkurduÄŁu": 7734,
      "ĠkÄ±smÄ±nÄ±": 7735,
      "ĠOut": 7736,
      "ĠÅŁans": 7737,
      "Ã©r": 7738,
      "ĠSci": 7739,
      "Ä±klÄ±": 7740,
      "gn": 7741,
      "indedir": 7742,
      "Ġhastal": 7743,
      "ĠayÄ±": 7744,
      "Ġmavi": 7745,
      "ĠHac": 7746,
      "ria": 7747,
      "ĠgerekÃ§esiyle": 7748,
      "pson": 7749,
      "ĠbahÃ§": 7750,
      "ĠHon": 7751,
      "inger": 7752,
      "ĠÃ§ekilen": 7753,
      "ĠArm": 7754,
      "kurgu": 7755,
      "ÉĻ": 7756,
      "ĠYour": 7757,
      "Ġdalga": 7758,
      "ĠtarzÄ±": 7759,
      "Ġmedya": 7760,
      "ĠyÃ¼zÃ¶lÃ§Ã¼mÃ¼ne": 7761,
      "ĠbÃ¼t": 7762,
      "ĠdÃ¼ÅŁÃ¼nce": 7763,
      "Ġgazete": 7764,
      "ĠPor": 7765,
      "IV": 7766,
      "ĠeÄŁlen": 7767,
      "Ġgetiren": 7768,
      "Ġidare": 7769,
      "ĠLatince": 7770,
      "Ġsuyun": 7771,
      "ĠJohan": 7772,
      "Ġhasar": 7773,
      "ĠForm": 7774,
      "ĠdoÄŁa": 7775,
      "ĠyardÄ±mÄ±yla": 7776,
      "Ġje": 7777,
      "je": 7778,
      "ĠtopraklarÄ±": 7779,
      "oo": 7780,
      "ĠKaynak": 7781,
      "ĠyÄ±llarÄ±n": 7782,
      "lenebilir": 7783,
      "Ġkorumak": 7784,
      "ĠkeÅŁfed": 7785,
      "ĠHans": 7786,
      "ĠÅŁampiyonluk": 7787,
      "ĠKitab": 7788,
      "Ġimparatorluk": 7789,
      "likle": 7790,
      "ĠÃ§izg": 7791,
      "TC": 7792,
      "fan": 7793,
      "Ġgar": 7794,
      "ĠsÃ¼reci": 7795,
      "kestr": 7796,
      "Ter": 7797,
      "isp": 7798,
      "SÄ±r": 7799,
      "ĠdÄ±ÅŁÄ±ndaki": 7800,
      "Ġuygulama": 7801,
      "Ġeyaletinde": 7802,
      "ĠSavaÅŁlarÄ±": 7803,
      "hol": 7804,
      "gamber": 7805,
      "MÃ¼zik": 7806,
      "ĠMakedonya": 7807,
      "Ä°nsan": 7808,
      "mamaktadÄ±r": 7809,
      "Ġakademisyen": 7810,
      "Bas": 7811,
      "Deniz": 7812,
      "ĠBre": 7813,
      "slan": 7814,
      "ÏĤ": 7815,
      "ĠHum": 7816,
      "Ġmensubu": 7817,
      "KK": 7818,
      "eygamber": 7819,
      "1965": 7820,
      "Ġzorunlu": 7821,
      "Ä±tlar": 7822,
      "ĠOv": 7823,
      "ibe": 7824,
      "ĠÄ°ktis": 7825,
      "ĠDaniel": 7826,
      "idae": 7827,
      "denin": 7828,
      "ĠdÃ¶nemlerde": 7829,
      "Ġtaban": 7830,
      "ĠEleÅŁtir": 7831,
      "Ġpaket": 7832,
      "ĠsavaÅŁa": 7833,
      "ĠHavalimanÄ±": 7834,
      "ĠShe": 7835,
      "ĠkitabÄ±nda": 7836,
      "bridge": 7837,
      "sky": 7838,
      "ĠMans": 7839,
      "Ġokuy": 7840,
      "Ġyetersiz": 7841,
      "ahya": 7842,
      "ĠKanal": 7843,
      "bit": 7844,
      "kaya": 7845,
      "atya": 7846,
      "ĠyayÄ±nlanmÄ±ÅŁtÄ±r": 7847,
      "For": 7848,
      "ĠkÄ±sÄ±t": 7849,
      "ĠPazar": 7850,
      "BatÄ±": 7851,
      "ÅŁi": 7852,
      "Ġoda": 7853,
      "abi": 7854,
      "helm": 7855,
      "nel": 7856,
      "Ġ42": 7857,
      "ĠEle": 7858,
      "masya": 7859,
      "nie": 7860,
      "Ġhayatta": 7861,
      "ĠSÄ±rbistan": 7862,
      "Ïģ": 7863,
      "ĠTurg": 7864,
      "ĠkomutasÄ±ndaki": 7865,
      "Kas": 7866,
      "Tel": 7867,
      "ĠbaÅŁkanlÄ±ÄŁÄ±": 7868,
      "ĠBÃ¼tÃ¼n": 7869,
      "Ã¼lmektedir": 7870,
      "ĠJust": 7871,
      "ĠPa": 7872,
      "oku": 7873,
      "Ã¢l": 7874,
      "ĠDik": 7875,
      "Ġtaraftar": 7876,
      "ĠgerÃ§ekleÅŁti": 7877,
      "ĠKaray": 7878,
      "chi": 7879,
      "ĠHill": 7880,
      "Ġmerkezinde": 7881,
      "fet": 7882,
      "ĠBayram": 7883,
      "acaktÄ±": 7884,
      "ĠhattÄ±": 7885,
      "Ġ975": 7886,
      "ĠhastalÄ±ÄŁÄ±": 7887,
      "Ġbenims": 7888,
      "Ġkaydetti": 7889,
      "ray": 7890,
      "ĠbÃ¶lgesine": 7891,
      "Ġligi": 7892,
      "Ġgenelinde": 7893,
      "ĠTÃ¼rkÃ§eye": 7894,
      "ÄŁunda": 7895,
      "eyt": 7896,
      "Ġfinale": 7897,
      "ĠmÃ¼mkÃ¼ndÃ¼r": 7898,
      "ĠGa": 7899,
      "ĠPub": 7900,
      "ĠdeÄŁerli": 7901,
      "ĠSec": 7902,
      "Ġge": 7903,
      "Ġdergi": 7904,
      "Ġsinyal": 7905,
      "ĠMahmud": 7906,
      "AN": 7907,
      "ĠarasÄ±ndadÄ±r": 7908,
      "ĠKarÅŁ": 7909,
      "Ġplay": 7910,
      "Ġikiye": 7911,
      "ĠbaÅŁvur": 7912,
      "2019": 7913,
      "ĠGil": 7914,
      "Ġevinde": 7915,
      "Ġyenilen": 7916,
      "ĠShak": 7917,
      "ĠDemokrat": 7918,
      "ĠĊĠĊĠĊ": 7919,
      "ĠMersin": 7920,
      "Ġreh": 7921,
      "ĠyazÄ±lmÄ±ÅŁtÄ±r": 7922,
      "Ä°ran": 7923,
      "ĠhariÃ§": 7924,
      "Ġsenarist": 7925,
      "Ġpul": 7926,
      "Ġsalon": 7927,
      "ĠTrabzonspor": 7928,
      "Ey": 7929,
      "ĠNov": 7930,
      "Bal": 7931,
      "Ġma": 7932,
      "Ġkaynaklar": 7933,
      "Ġsenaryosunu": 7934,
      "ekte": 7935,
      "Ġfe": 7936,
      "âĢĶ": 7937,
      "likte": 7938,
      "ĠoluÅŁturulan": 7939,
      "ĠCount": 7940,
      "Mil": 7941,
      "ayÄ±cÄ±": 7942,
      "ĠÃ¼stlendi": 7943,
      "ĠkÃ¼resel": 7944,
      "Ġsel": 7945,
      "ĠMotor": 7946,
      "ĠbaÅŁladÄ±lar": 7947,
      "Ġdefter": 7948,
      "Ġteorisi": 7949,
      "Ġkonus": 7950,
      "Ġkilometre": 7951,
      "kÃ¼r": 7952,
      "ty": 7953,
      "ÙĦ": 7954,
      "ĠOli": 7955,
      "osya": 7956,
      "ĠdÃ¼ÅŁen": 7957,
      "Ġkonuda": 7958,
      "ĠmahkÃ»m": 7959,
      "ety": 7960,
      "ĠBad": 7961,
      "ĠNit": 7962,
      "Ã¼ÅŁÃ¼": 7963,
      "ĠGerÃ§ek": 7964,
      "his": 7965,
      "ĠBunu": 7966,
      "liÄŁindeki": 7967,
      "arÄ±m": 7968,
      "Ġtutul": 7969,
      "YaÅŁamÄ±": 7970,
      "Ġsig": 7971,
      "ĠÃ§aÄŁdaÅŁ": 7972,
      "Ġsul": 7973,
      "Ã¢m": 7974,
      "Ser": 7975,
      "ept": 7976,
      "ĠÃĸnc": 7977,
      "Der": 7978,
      "ĠSib": 7979,
      "ĠkarÅŁÄ±lan": 7980,
      "lendirme": 7981,
      "ĠbasÄ±nÃ§": 7982,
      "ĠgÃ¶rdÃ¼ÄŁÃ¼": 7983,
      "ĠCHP": 7984,
      "ĠSic": 7985,
      "Ġinf": 7986,
      "ĠvarlÄ±ÄŁÄ±nÄ±": 7987,
      "Galeri": 7988,
      "KÃ¶": 7989,
      "ember": 7990,
      "ĠÅŁehirde": 7991,
      "Ġkitl": 7992,
      "Ġvurg": 7993,
      "ĠettiÄŁini": 7994,
      "1964": 7995,
      "bal": 7996,
      "ĠAÄŁÄ±r": 7997,
      "ĠGrammy": 7998,
      "Ġrakam": 7999,
      "Ġfen": 8000,
      "Ġintihar": 8001,
      "Ã§er": 8002,
      "ĠKi": 8003,
      "Ġyerinde": 8004,
      "ĠSanatlar": 8005,
      "ĠMeslek": 8006,
      "emix": 8007,
      "mond": 8008,
      "ĠNil": 8009,
      "edikleri": 8010,
      "Ġtenis": 8011,
      "Ġtren": 8012,
      "ĠArda": 8013,
      "arth": 8014,
      "ahi": 8015,
      "Ä±lmÄ±ÅŁtÄ±": 8016,
      "ĠDÃ¼k": 8017,
      "ĠÃĸrgÃ¼t": 8018,
      "Ġkorku": 8019,
      "ÄŁÄ±t": 8020,
      "ĠEnter": 8021,
      "1945": 8022,
      "Ġkoc": 8023,
      "usya": 8024,
      "ĠtÃ¼y": 8025,
      "ĠgÃ¶sterilmiÅŁtir": 8026,
      "ule": 8027,
      "Ġseviye": 8028,
      "Ġkoz": 8029,
      "etay": 8030,
      "ĠMicrosoft": 8031,
      "log": 8032,
      "ĠkazÄ±": 8033,
      "ĠseÃ§ilmiÅŁtir": 8034,
      "Ġaskerler": 8035,
      "ĠParlament": 8036,
      "Ġ1913": 8037,
      "ĠOff": 8038,
      "ĠbaÅŁlanmÄ±ÅŁtÄ±r": 8039,
      "ĠÃĩalÄ±ÅŁ": 8040,
      "Ġyeter": 8041,
      "Å«": 8042,
      "John": 8043,
      "gon": 8044,
      "Ġnesil": 8045,
      "Ġaltyap": 8046,
      "ĠcÃ¼m": 8047,
      "Mahallenin": 8048,
      "ĠsÃ¶zcÃ¼ÄŁÃ¼": 8049,
      "ĠMahallesi": 8050,
      "Ġgirer": 8051,
      "ĠyÃ¼rÃ¼r": 8052,
      "ĠBosna": 8053,
      "ĠparÃ§acÄ±k": 8054,
      "Fen": 8055,
      "cinsel": 8056,
      "etro": 8057,
      "anus": 8058,
      "ĠSom": 8059,
      "Ġtoplu": 8060,
      "ĠMÃ¼nih": 8061,
      "Ġmanyetik": 8062,
      "olk": 8063,
      "Ġzih": 8064,
      "ĠErdoÄŁan": 8065,
      "Ġduruma": 8066,
      "ĠSi": 8067,
      "ĠHizmet": 8068,
      "Ġbulut": 8069,
      "ĠalbÃ¼mÃ¼nÃ¼": 8070,
      "Ġdizisinde": 8071,
      "enci": 8072,
      "Ġolsun": 8073,
      "Ġpir": 8074,
      "ĠNÃ¼fus": 8075,
      "Ġkelimesi": 8076,
      "ĠcoÄŁrafi": 8077,
      "Ġfel": 8078,
      "Ġfrek": 8079,
      "ĠalbÃ¼mde": 8080,
      "ĠgolÃ¼nÃ¼": 8081,
      "SO": 8082,
      "ĠCev": 8083,
      "ĠYe": 8084,
      "Ġbulunuyordu": 8085,
      "ĠEbu": 8086,
      "odor": 8087,
      "ĠanlamÄ±nda": 8088,
      "ĠhÄ±zÄ±": 8089,
      "ĠTurk": 8090,
      "kestra": 8091,
      "ĠKonf": 8092,
      "ĠLaw": 8093,
      "ĠsonralarÄ±": 8094,
      "dev": 8095,
      "ĠSeb": 8096,
      "ĠHab": 8097,
      "ĠÅŀam": 8098,
      "Ġondan": 8099,
      "ĠkiÅŁilerin": 8100,
      "ĠRomalÄ±": 8101,
      "abilirler": 8102,
      "Ġliber": 8103,
      "ĠyumuÅŁ": 8104,
      "malÄ±dÄ±r": 8105,
      "ĠbaÅŁÄ±": 8106,
      "ĠtaÅŁÄ±r": 8107,
      "ĠHollandalÄ±": 8108,
      "ĠantlaÅŁ": 8109,
      "bahar": 8110,
      "adaÄŁ": 8111,
      "BaÄŁ": 8112,
      "Disk": 8113,
      "Ã§Ä±nÄ±n": 8114,
      "ĠNot": 8115,
      "ĠyarÄ±sÄ±nda": 8116,
      "ĠkÃ¼tle": 8117,
      "Ġdakikada": 8118,
      "amo": 8119,
      "stem": 8120,
      "lal": 8121,
      "raj": 8122,
      "Ġvan": 8123,
      "Ġvergi": 8124,
      "ĠBrit": 8125,
      "ĠIndi": 8126,
      "ĠkÃ¶yÃ¼nde": 8127,
      "ĠprogramlarÄ±": 8128,
      "Ġdemek": 8129,
      "che": 8130,
      "lamaktadÄ±r": 8131,
      "Ġkalit": 8132,
      "Ġligde": 8133,
      "general": 8134,
      "ĠbaskÄ±n": 8135,
      "Ġmakam": 8136,
      "ĠsaÄŁlamÄ±ÅŁtÄ±r": 8137,
      "zabeth": 8138,
      "Roma": 8139,
      "ĠbÃ¶lÃ¼mleri": 8140,
      "duk": 8141,
      "ĠKraliyet": 8142,
      "ĠGenÃ§ler": 8143,
      "mini": 8144,
      "ĠolmaktadÄ±r": 8145,
      "ĠparÃ§alarÄ±": 8146,
      "ĠyaptÄ±klarÄ±": 8147,
      "illiÄŁi": 8148,
      "Ġmis": 8149,
      "ĠBaÄŁdat": 8150,
      "ston": 8151,
      "Muh": 8152,
      "ÙĬ": 8153,
      "Ġ$": 8154,
      "ĠSadece": 8155,
      "ĠyakÄ±t": 8156,
      "ubb": 8157,
      "rikalÄ±": 8158,
      "ĠkontrolÃ¼": 8159,
      "ĠKadÄ±nlar": 8160,
      "Ġkriz": 8161,
      "ĠDig": 8162,
      "ihan": 8163,
      "try": 8164,
      "elenek": 8165,
      "ĠkadÄ±nlar": 8166,
      "ĠScott": 8167,
      "May": 8168,
      "ĠBru": 8169,
      "Ġ48": 8170,
      "ĠStre": 8171,
      "guay": 8172,
      "ĠNGC": 8173,
      "Ġund": 8174,
      "Ġuydu": 8175,
      "sche": 8176,
      "ĠSok": 8177,
      "tanÄ±n": 8178,
      "langÄ±Ã§": 8179,
      "ĠtakÄ±mda": 8180,
      "Ġeb": 8181,
      "Ġbirini": 8182,
      "ĠdÃ¶": 8183,
      "Ġvererek": 8184,
      "ĠSanayi": 8185,
      "Ġrady": 8186,
      "Ġsadrazam": 8187,
      "ĠÃ¶ÄŁrencisi": 8188,
      "Ġvs": 8189,
      "ĠBut": 8190,
      "adet": 8191,
      "Ġkaleme": 8192,
      "ĠsÄ±ÄŁÄ±n": 8193,
      "Ãª": 8194,
      "ÅŁev": 8195,
      "Ġtahr": 8196,
      "ĠDemokratik": 8197,
      "Ã¼lmÃ¼ÅŁ": 8198,
      "ĠkullanÄ±lmasÄ±": 8199,
      "ĠYÄ±ldÄ±rÄ±m": 8200,
      "ĠPapa": 8201,
      "maraÅŁ": 8202,
      "aydÄ±": 8203,
      "ĠRog": 8204,
      "oÄŁullarÄ±": 8205,
      "ĠolmuÅŁtu": 8206,
      "Ġayaklan": 8207,
      "Ð³": 8208,
      "ĠCamp": 8209,
      "ĠayrÄ±larak": 8210,
      "engiz": 8211,
      "amaya": 8212,
      "ĠgÃ¶sterdiÄŁi": 8213,
      "Ã¶ly": 8214,
      "ĠÃ¶ngÃ¶r": 8215,
      "ĠkÃ¶pr": 8216,
      "ĠSanatÃ§Ä±": 8217,
      "ĠDoktor": 8218,
      "ĠPost": 8219,
      "ĠanlatÄ±r": 8220,
      "Ġhangi": 8221,
      "Ġsabah": 8222,
      "Ġbayrak": 8223,
      "ĠsatÄ±ÅŁa": 8224,
      "ĠbeÄŁen": 8225,
      "ĠÃ§Ä±kardÄ±ÄŁÄ±": 8226,
      "ĠhÃ¢lÃ¢": 8227,
      "ĠtÄ±b": 8228,
      "Ġyerler": 8229,
      "ĠÃ¼lkeleri": 8230,
      "aÅŁÄ±r": 8231,
      "ĠÃĩerkes": 8232,
      "Ġ1908": 8233,
      "ĠtanÄ±nmÄ±ÅŁ": 8234,
      "Kitap": 8235,
      "ĠBoston": 8236,
      "ĠKonservat": 8237,
      "FI": 8238,
      "Ġyav": 8239,
      "Ã¼nce": 8240,
      "ĠbileÅŁik": 8241,
      "Sal": 8242,
      "iÃ§i": 8243,
      "Ġekibi": 8244,
      "ĠalbÃ¼mÃ¼nde": 8245,
      "Ġdevleti": 8246,
      "à¤": 8247,
      "ayÄ±k": 8248,
      "ĠGÃ¼nÃ¼": 8249,
      "ĠTrak": 8250,
      "ĠmÃ¼ziÄŁini": 8251,
      "kale": 8252,
      "ĠÃĩank": 8253,
      "elin": 8254,
      "Ġ1000": 8255,
      "Ġenz": 8256,
      "ĠChris": 8257,
      "ĠgÃ¶revinden": 8258,
      "sul": 8259,
      "Ġdom": 8260,
      "Ġgenetik": 8261,
      "ĠAntonio": 8262,
      "yr": 8263,
      "ĠkarÅŁÄ±tÄ±": 8264,
      "ĠbaÅŁkanlarÄ±": 8265,
      "ox": 8266,
      "ĠkaynaklarÄ±": 8267,
      "ĠGÃ¼Ã§": 8268,
      "Ġbulunmayan": 8269,
      "ĠdÃ¶nen": 8270,
      "Ġdevre": 8271,
      "ĠbÃ¶lgeleri": 8272,
      "ĠarkadaÅŁlarÄ±": 8273,
      "Ġaray": 8274,
      "eman": 8275,
      "ĠFord": 8276,
      "Ġbelgesel": 8277,
      "ĠkazandÄ±ÄŁÄ±": 8278,
      "Ġsanay": 8279,
      "ĠAÅŁaÄŁÄ±": 8280,
      "Ġhakimiyet": 8281,
      "irken": 8282,
      "Ġdevir": 8283,
      "port": 8284,
      "Ġparalel": 8285,
      "ĠGenÃ§lik": 8286,
      "ÅŁe": 8287,
      "Ø§Ø": 8288,
      "ĠRadyo": 8289,
      "Ä±mlÄ±": 8290,
      "Ġokulu": 8291,
      "Kariyeri": 8292,
      "Ġnitelendir": 8293,
      "Ġalana": 8294,
      "Ġyenerek": 8295,
      "ĠÄ°lkÃ¶ÄŁretim": 8296,
      "Ġcinayet": 8297,
      "ĠSÄ±nÄ±f": 8298,
      "ĠÃĩat": 8299,
      "Ġokudu": 8300,
      "ĠkeÅŁif": 8301,
      "ĠListesi": 8302,
      "dim": 8303,
      "ĠgÃ¶reve": 8304,
      "Ġbozukluk": 8305,
      "ĠFel": 8306,
      "ĠolaylarÄ±": 8307,
      "atlar": 8308,
      "ĠyayÄ±nlar": 8309,
      "Ġtipik": 8310,
      "Åŀehir": 8311,
      "Teknik": 8312,
      "ilecek": 8313,
      "ĠOx": 8314,
      "Ġhane": 8315,
      "alyasÄ±": 8316,
      "Ġayar": 8317,
      "Ġyirmi": 8318,
      "uar": 8319,
      "zat": 8320,
      "tÄ±cÄ±": 8321,
      "Ġ55": 8322,
      "Ġ65": 8323,
      "ĠKupa": 8324,
      "ĠOnur": 8325,
      "ĠiÅŁletim": 8326,
      "Ġhab": 8327,
      "ĠÅŀer": 8328,
      "ĠkaldÄ±ÄŁÄ±": 8329,
      "Ġedeb": 8330,
      "ĠÃ§alÄ±ÅŁmalarÄ±nÄ±": 8331,
      "Ġdemiryolu": 8332,
      "De": 8333,
      "ĠbulunmaktaydÄ±": 8334,
      "reter": 8335,
      "ÏĦ": 8336,
      "ĠsÃ¼per": 8337,
      "ĠBiy": 8338,
      "Ġistik": 8339,
      "Ġmaddeler": 8340,
      "Ġbakan": 8341,
      "Ġbirbirinden": 8342,
      "ĠkalabalÄ±k": 8343,
      "ĠÃ§ar": 8344,
      "Ġalanlarda": 8345,
      "ĠÅŁekli": 8346,
      "ĠkÄ±rsal": 8347,
      "Ġnumara": 8348,
      "Ġonunla": 8349,
      "ĠSinop": 8350,
      "SP": 8351,
      "inen": 8352,
      "low": 8353,
      "Ġvit": 8354,
      "ĠmÃ¼zikal": 8355,
      "ĠSakarya": 8356,
      "Ġiptal": 8357,
      "ĠdÃ¼": 8358,
      "masÄ±dÄ±r": 8359,
      "Ġsuikast": 8360,
      "Ġkims": 8361,
      "ĠWin": 8362,
      "ĠbÄ±rakÄ±ldÄ±": 8363,
      "ios": 8364,
      "ÛĮ": 8365,
      "ĠKÄ±lÄ±Ã§": 8366,
      "ĠFizik": 8367,
      "ĠbÃ¶lÃ¼mÃ¼nÃ¼": 8368,
      "ĠBÃ¶lge": 8369,
      "Ð¾Ð²": 8370,
      "Ġcer": 8371,
      "ĠiÃ§erik": 8372,
      "ĠManchester": 8373,
      "Ġmemur": 8374,
      "iyorum": 8375,
      "Ġkampan": 8376,
      "Ġtayin": 8377,
      "ĠLÃ¼b": 8378,
      "ĠÃ§aÄŁÄ±r": 8379,
      "iral": 8380,
      "casÄ±": 8381,
      "lular": 8382,
      "ĠbÃ¶lgeyi": 8383,
      "ĠMilletvek": 8384,
      "Ġduygu": 8385,
      "ĠperformansÄ±": 8386,
      "enleri": 8387,
      "ĠDÃ¶nemi": 8388,
      "ĠPerforman": 8389,
      "ĠbiÃ§imi": 8390,
      "esliga": 8391,
      "Ġkonuk": 8392,
      "ansiyon": 8393,
      "ĠkÃ¶prÃ¼": 8394,
      "ĠtartÄ±ÅŁmalar": 8395,
      "Ġmitoloj": 8396,
      "Ġkere": 8397,
      "ĠalÄ±narak": 8398,
      "SK": 8399,
      "ement": 8400,
      "ĠDie": 8401,
      "ĠÃĩam": 8402,
      "Ġgiyen": 8403,
      "MD": 8404,
      "ea": 8405,
      "ĠBrown": 8406,
      "ĠalÄ±p": 8407,
      "ĠToprak": 8408,
      "ĠKÃ¼tÃ¼phan": 8409,
      "ĠbaÅŁkanlÄ±k": 8410,
      "Ok": 8411,
      "ĠBeh": 8412,
      "ĠaÄŁÄ±rlÄ±k": 8413,
      "ĠyÃ¶netmenliÄŁini": 8414,
      "Ġyiyecek": 8415,
      "ĠayrÄ±lan": 8416,
      "ID": 8417,
      "ĠMatt": 8418,
      "ivan": 8419,
      "ĠTurn": 8420,
      "ĠkÃ¼tÃ¼phan": 8421,
      "ĠkÄ±salt": 8422,
      "ĠÃ§eken": 8423,
      "Ġmutlak": 8424,
      "ĠSonraki": 8425,
      "Ġpl": 8426,
      "iba": 8427,
      "1963": 8428,
      "Ã«": 8429,
      "ĠgÃ¼z": 8430,
      "ahtar": 8431,
      "ĠCast": 8432,
      "Ġyakalan": 8433,
      "ĠgÃ¶rÃ¼lmÃ¼ÅŁtÃ¼r": 8434,
      "ãĤ": 8435,
      "ĠAil": 8436,
      "ezer": 8437,
      "eleriyle": 8438,
      "htm": 8439,
      "ĠaÄŁz": 8440,
      "eÅŁitli": 8441,
      "ĠgÃ¼cÃ¼nÃ¼": 8442,
      "ĠseÃ§en": 8443,
      "1961": 8444,
      "azak": 8445,
      "Ġoldular": 8446,
      "ĠÅŀim": 8447,
      "diki": 8448,
      "ĠGoogle": 8449,
      "ĠkÃ¼ltÃ¼rÃ¼": 8450,
      "resi": 8451,
      "rick": 8452,
      "ĠYugoslavya": 8453,
      "Ä°st": 8454,
      "ĠYavuz": 8455,
      "ĠyapÄ±t": 8456,
      "ersek": 8457,
      "ĠulaÅŁan": 8458,
      "Ġtakdir": 8459,
      "ĠComp": 8460,
      "Ġrekabet": 8461,
      "Ġyem": 8462,
      "celi": 8463,
      "oj": 8464,
      "Ġyel": 8465,
      "ĠAltÄ±": 8466,
      "lemiÅŁtir": 8467,
      "undesliga": 8468,
      "Ġkelime": 8469,
      "Ġmuhalef": 8470,
      "ĠtakÄ±myÄ±ldÄ±zÄ±": 8471,
      "ĠpiÅŁ": 8472,
      "ĠoluÅŁturmaktadÄ±r": 8473,
      "Haz": 8474,
      "Ġkurt": 8475,
      "Ġharekete": 8476,
      "Ġdilinde": 8477,
      "Ġanlatan": 8478,
      "Ġ39": 8479,
      "ĠĠĠĠĠĠĠĠĠĠĠĠ": 8480,
      "Ġtepki": 8481,
      "Ġreaksiyon": 8482,
      "ĠMetin": 8483,
      "Ġdarbe": 8484,
      "ĠÅŀeri": 8485,
      "Ġbilm": 8486,
      "ĠÅŁarkÄ±nÄ±n": 8487,
      "Ġgemisi": 8488,
      "yak": 8489,
      "avv": 8490,
      "ĠhalkÄ±nÄ±n": 8491,
      "ĠÅŁÃ¼ph": 8492,
      "Ġkimi": 8493,
      "ET": 8494,
      "ĠSpe": 8495,
      "Ġbilimi": 8496,
      "ĠsÃ¶zleri": 8497,
      "Ġkemik": 8498,
      "Ġotomatik": 8499,
      "ĠkaranlÄ±k": 8500,
      "ÅŁah": 8501,
      "ĠNar": 8502,
      "ĠalbÃ¼mler": 8503,
      "ĠhazÄ±rlanan": 8504,
      "Ġkitaplar": 8505,
      "ĠstatÃ¼s": 8506,
      "ĠmÃ¼lk": 8507,
      "Ä±lÄ±yor": 8508,
      "ĠAÄŁrÄ±": 8509,
      ";\"": 8510,
      "Ġsoyun": 8511,
      "ĠaylÄ±k": 8512,
      "antum": 8513,
      "lywood": 8514,
      "Ġgrafik": 8515,
      "ĠbÃ¶lgelerinde": 8516,
      "amanÄ±": 8517,
      "ipn": 8518,
      "ĠÃ¶lÃ¼mÃ¼ne": 8519,
      "ĠmÃ¼sabak": 8520,
      "ĠAward": 8521,
      "ĠLar": 8522,
      "ĠJeff": 8523,
      "Ġ64": 8524,
      "ĠsavaÅŁta": 8525,
      "ĠBrezilyalÄ±": 8526,
      "ĠGold": 8527,
      "Ġoranda": 8528,
      "Ġbez": 8529,
      "Ġverilm": 8530,
      "ĠÅŁeker": 8531,
      "ĠSistemi": 8532,
      "Em": 8533,
      "Ã¼lmesi": 8534,
      "Ġbulur": 8535,
      "Ġteker": 8536,
      "ĠDili": 8537,
      "ĠyÃ¼ksekliÄŁi": 8538,
      "Ġkapsayan": 8539,
      "Ä±ntÄ±lÄ±": 8540,
      "ĠÃ§Ä±karak": 8541,
      "ĠUzay": 8542,
      "ĠSSCB": 8543,
      "Ġ(%": 8544,
      "ebilmektedir": 8545,
      "ĠUÄŁur": 8546,
      "ĠmaÃ§Ä±n": 8547,
      "Ġyetkil": 8548,
      "pazarÄ±": 8549,
      "ĠdoÄŁrultusunda": 8550,
      "ĠbiÃ§iminde": 8551,
      "AF": 8552,
      "baÄŁ": 8553,
      "latÄ±": 8554,
      "ĠkomÃ¼nist": 8555,
      "aven": 8556,
      "Ġyapma": 8557,
      "Ġbelirtir": 8558,
      "ĠpeÅŁ": 8559,
      "Elekt": 8560,
      "ĠAbdÃ¼lham": 8561,
      "ĠmÃ¼ttefik": 8562,
      "ĠHelen": 8563,
      "ĠgÃ¶nderdi": 8564,
      "ĠdirektÃ¶rler": 8565,
      "Sar": 8566,
      "Ġkemer": 8567,
      "ista": 8568,
      "ĠbÃ¶lgedeki": 8569,
      "GenÃ§": 8570,
      "ĠHÃ¼kÃ»meti": 8571,
      "ĠGem": 8572,
      "ĠyardÄ±mcÄ±sÄ±": 8573,
      "Ġdoku": 8574,
      "adÄ±k": 8575,
      "laj": 8576,
      "Ġdavul": 8577,
      "kate": 8578,
      "sta": 8579,
      "osh": 8580,
      "ĠAnne": 8581,
      "1962": 8582,
      "ĠFelsef": 8583,
      "ĠMuhaf": 8584,
      "Sen": 8585,
      "ispor": 8586,
      "Ġatmosfer": 8587,
      "Ġsayede": 8588,
      "ĠterÃ¶r": 8589,
      "ĠHÃ¼kÃ¼m": 8590,
      "uzu": 8591,
      "Ġbulan": 8592,
      "Ġekonomi": 8593,
      "ĠAlexander": 8594,
      "Ali": 8595,
      "Biy": 8596,
      "Ġsend": 8597,
      "ĠtatlÄ±": 8598,
      "ĠGreen": 8599,
      "ĠyanÄ±t": 8600,
      "Amerikan": 8601,
      "ĠyargÄ±lan": 8602,
      "background": 8603,
      "UEFA": 8604,
      "ĠHad": 8605,
      "ezid": 8606,
      "ĠÅŀampiyonluÄŁu": 8607,
      "ĠÄ°ÅŁÃ§i": 8608,
      "Ġex": 8609,
      "ĠParkÄ±": 8610,
      "ĠlayÄ±k": 8611,
      "Ġtabi": 8612,
      "ĠsÃ¼rÃ¼mÃ¼": 8613,
      "ĠHarp": 8614,
      "veti": 8615,
      "ĠÃĩaÄŁÄ±": 8616,
      "ĠAfyon": 8617,
      "ĠLondon": 8618,
      "ĠdÃ¶ner": 8619,
      "Ġbakter": 8620,
      "ĠYaÅŁam": 8621,
      "iana": 8622,
      "ĠoÄŁl": 8623,
      "ÂŃ": 8624,
      "ĠÅŁeyi": 8625,
      "ĠbulunmuÅŁ": 8626,
      "ĠsÃ¼reli": 8627,
      "Ġnih": 8628,
      "ĠatmÄ±ÅŁtÄ±r": 8629,
      "ĠAfganistan": 8630,
      "Dav": 8631,
      "Ġfiz": 8632,
      "ĠbaÅŁlayarak": 8633,
      "ĠAnth": 8634,
      "Ã§ilerin": 8635,
      "Ph": 8636,
      "ĠkaydedilmiÅŁtir": 8637,
      "?\"": 8638,
      "ĠPakistan": 8639,
      "rie": 8640,
      "ĠEuro": 8641,
      "Ġturizm": 8642,
      "ĠÃ¶zellikler": 8643,
      "Ġpotansiyel": 8644,
      "Roman": 8645,
      "roman": 8646,
      "ĠtakÄ±ma": 8647,
      "ĠgÃ¼Ã§lendir": 8648,
      "luÄŁa": 8649,
      "DD": 8650,
      "Ġimzalanan": 8651,
      "Ġmeslek": 8652,
      "letiÅŁim": 8653,
      "ansa": 8654,
      "Ġresmen": 8655,
      "ĠborÃ§": 8656,
      "oss": 8657,
      "Ġterimleri": 8658,
      "ATO": 8659,
      "ther": 8660,
      "Ġisimleri": 8661,
      "ĠrolÃ¼nde": 8662,
      "Ġsunucu": 8663,
      "ĠdÃ¶vÃ¼ÅŁ": 8664,
      "Avustur": 8665,
      "dÄ±ÄŁÄ±nÄ±": 8666,
      "gie": 8667,
      "ĠeÄŁilim": 8668,
      "Ġunut": 8669,
      "ĠvermiÅŁ": 8670,
      "ĠkullanÄ±lm": 8671,
      "ĠÃľs": 8672,
      "ayir": 8673,
      "tron": 8674,
      "elly": 8675,
      "Ġbina": 8676,
      "ĠBuz": 8677,
      "ĠsÃ¼rgÃ¼n": 8678,
      "ĠÃ¶rneÄŁi": 8679,
      "Ġdepol": 8680,
      "abildi": 8681,
      "ĠYÃ¼r": 8682,
      "agan": 8683,
      "ÑģÐº": 8684,
      "ĠÃ§alÄ±ÅŁtÄ±ÄŁÄ±": 8685,
      "Ġturda": 8686,
      "Ġromanlar": 8687,
      "Ġsenaryo": 8688,
      "iÅŁik": 8689,
      "Ġmimari": 8690,
      "ĠayrÄ±m": 8691,
      "ĠKanunu": 8692,
      "ĠÅŁiddetli": 8693,
      "ĠsÄ±ralam": 8694,
      "esin": 8695,
      "ĠSchool": 8696,
      "ongul": 8697,
      "Ġgitarist": 8698,
      "pool": 8699,
      "Ã§ekten": 8700,
      "Ġ41": 8701,
      "Ġharc": 8702,
      "ĠElizabeth": 8703,
      "GÃ¼r": 8704,
      "Ġbisiklet": 8705,
      "Ã¼mlÃ¼": 8706,
      "ĠiÅŁe": 8707,
      "Ġdenet": 8708,
      "Ġtakson": 8709,
      "ĠAnayasa": 8710,
      "ĠKanun": 8711,
      "ĠyÃ¶netiminde": 8712,
      "Ġsosyalist": 8713,
      "Kara": 8714,
      "Ġsonsuz": 8715,
      "ĠTiyatrolarÄ±": 8716,
      "aft": 8717,
      "ĠbaÄŁÄ±ÅŁ": 8718,
      "lamalarÄ±": 8719,
      "Ġtasvir": 8720,
      ".:": 8721,
      "Ä±laÅŁ": 8722,
      "cho": 8723,
      "ĠAnti": 8724,
      "Ġkonferans": 8725,
      "Ġitir": 8726,
      "NBA": 8727,
      "Pop": 8728,
      "ĠMusa": 8729,
      "Ġhttps": 8730,
      "mekten": 8731,
      "iyen": 8732,
      "ĠFas": 8733,
      "ĨĴ": 8734,
      "ĠaÄŁÄ±z": 8735,
      "Ø§ÙĦ": 8736,
      "onguldak": 8737,
      "Ġeklen": 8738,
      "ĠeÄŁitimini": 8739,
      "ĠMahmut": 8740,
      "ĠkÄ±yÄ±sÄ±nda": 8741,
      "GÃ¼mÃ¼ÅŁ": 8742,
      "Yak": 8743,
      "aska": 8744,
      "Ġbinlerce": 8745,
      "ĠSteve": 8746,
      "ĠFrancisco": 8747,
      "ĠVietnam": 8748,
      "Ġkazanarak": 8749,
      "gÄ±z": 8750,
      "sburg": 8751,
      "Ġdijital": 8752,
      "ĠgÃ¼Ã§leri": 8753,
      "ĠÃ§ocuÄŁ": 8754,
      "ĠOri": 8755,
      "ree": 8756,
      "Ãĸzellik": 8757,
      "ĠÃ§Ä±karÄ±lan": 8758,
      "BaÅŁarÄ±larÄ±": 8759,
      "ĠWes": 8760,
      "ĠArabistan": 8761,
      "ĠRobin": 8762,
      "ĠKafkasya": 8763,
      "ĠyÃ¶rÃ¼ng": 8764,
      "Ġedilerek": 8765,
      "Ġsatan": 8766,
      "tuk": 8767,
      "2021": 8768,
      "ĠVilla": 8769,
      "gia": 8770,
      "Macar": 8771,
      "ĠVas": 8772,
      "ĠolmasÄ±dÄ±r": 8773,
      "ĠbaÄŁÄ±msÄ±zlÄ±ÄŁÄ±nÄ±": 8774,
      "ĠBaÄŁÄ±msÄ±z": 8775,
      "ĠOrgan": 8776,
      "andar": 8777,
      "ĠbaÄŁÄ±msÄ±zlÄ±k": 8778,
      "ĠatÄ±ÅŁ": 8779,
      "ĠAmasya": 8780,
      "Ġwww": 8781,
      "Ġhayata": 8782,
      "eÅŁme": 8783,
      "ĠWolf": 8784,
      "feransÄ±": 8785,
      "lamalar": 8786,
      "ĠKÃ¶rfezi": 8787,
      "ĠBell": 8788,
      "ĠLet": 8789,
      "Video": 8790,
      "Ġdelik": 8791,
      "uto": 8792,
      "ĠdireniÅŁ": 8793,
      "Ġblok": 8794,
      "Ġaksiyon": 8795,
      "ĠgÃ¶sterime": 8796,
      "Ġproje": 8797,
      "ĠBÃ¼lent": 8798,
      "Ġkuru": 8799,
      "ĠUm": 8800,
      "grad": 8801,
      "Oyuncular": 8802,
      "Ġard": 8803,
      "ĠNer": 8804,
      "ĠBM": 8805,
      "ĠSÃ¼n": 8806,
      "ĠNÃ¼fusu": 8807,
      "Ä±ydÄ±": 8808,
      "Ġemek": 8809,
      "ĠsÃ¶zcÃ¼ÄŁ": 8810,
      "ador": 8811,
      "azen": 8812,
      "ĠNam": 8813,
      "ĠolaÄŁan": 8814,
      "ĠyÃ¼zyÄ±ldan": 8815,
      "ĠortalarÄ±nda": 8816,
      "Ġkrom": 8817,
      "Ġhizmete": 8818,
      "ĠkonuÅŁma": 8819,
      "Cumhuriyet": 8820,
      "ĠTasar": 8821,
      "ĠFilip": 8822,
      "ivayet": 8823,
      "ĠArch": 8824,
      "ĠaÃ§Ä±kÃ§a": 8825,
      "Galatasaray": 8826,
      "Ġlisteleri": 8827,
      "Ä°zmir": 8828,
      "ĠÃ¼lkelerin": 8829,
      "Ġlistesine": 8830,
      "verengi": 8831,
      "ĠWat": 8832,
      "Ġcaz": 8833,
      "Ġikna": 8834,
      "ĠkonuÅŁan": 8835,
      "ĠsÄ±nav": 8836,
      "Per": 8837,
      "lag": 8838,
      "Ġmerkezleri": 8839,
      "Ä±lÄ±yordu": 8840,
      "Ġsaltan": 8841,
      "ĠsÄ±nÄ±rÄ±": 8842,
      "Ġseslendirme": 8843,
      "desi": 8844,
      "ĠRize": 8845,
      "veriÅŁ": 8846,
      "2022": 8847,
      "ĠtanÄ±mlanan": 8848,
      "arsu": 8849,
      "celona": 8850,
      "ĠCompan": 8851,
      "Ġ1910": 8852,
      "Ġnam": 8853,
      "Ġparlament": 8854,
      "ifer": 8855,
      "ĠdÃ¼zeyde": 8856,
      "ces": 8857,
      "Ġsessiz": 8858,
      "Ġmag": 8859,
      "ilmesiyle": 8860,
      "ĠbaÄŁlam": 8861,
      "ĠKaraman": 8862,
      "Ġprotokol": 8863,
      "ĠSlav": 8864,
      "diÄŁini": 8865,
      "Ġbuhar": 8866,
      "ĠkurulmasÄ±": 8867,
      "ĠkavramÄ±": 8868,
      "ĠTony": 8869,
      "ĠFik": 8870,
      "ĠReg": 8871,
      "uzur": 8872,
      "lemiÅŁ": 8873,
      "ĠÄ°ÅŁlet": 8874,
      "Ġust": 8875,
      "Ã¼ntÃ¼": 8876,
      "ĠErn": 8877,
      "Brezil": 8878,
      "ĠMÃ¼hendisliÄŁi": 8879,
      "KÄ±zÄ±l": 8880,
      "ĠbulunmasÄ±": 8881,
      "ĠsÄ±ÄŁ": 8882,
      "aceae": 8883,
      "Ġgeomet": 8884,
      "atlarÄ±": 8885,
      "Ã¼kem": 8886,
      "mekle": 8887,
      "uhan": 8888,
      "leÅŁim": 8889,
      "Ġolduktan": 8890,
      "ĠKu": 8891,
      "Ġ1911": 8892,
      "ĠyaÅŁamÄ±nÄ±": 8893,
      "Ġanimasyon": 8894,
      "ĠRem": 8895,
      "ĠNih": 8896,
      "opter": 8897,
      "ĠKÄ±rk": 8898,
      "Ġkolu": 8899,
      "Ġ(),": 8900,
      "ĠkÄ±yas": 8901,
      "ĠAK": 8902,
      "ĠPl": 8903,
      "ĠWilhelm": 8904,
      "ĠsayÄ±mÄ±nda": 8905,
      "ĠYoung": 8906,
      "ĠMÃ¼l": 8907,
      "Ġvermeye": 8908,
      "ĠHy": 8909,
      "GeÃ§": 8910,
      "ĠolayÄ±": 8911,
      "ump": 8912,
      "ĠMilliyet": 8913,
      "ĠMekte": 8914,
      "ĠNiÅŁanÄ±": 8915,
      "ĠMeg": 8916,
      "ĠÃĸzerk": 8917,
      "ĠÄ°mparatorluk": 8918,
      "Ġfikr": 8919,
      "Ã§Ã¼": 8920,
      "Ġilham": 8921,
      "ĠkÃ¶t": 8922,
      "ĠazÄ±n": 8923,
      "ittle": 8924,
      "omut": 8925,
      "ĠIÅŁÄ±k": 8926,
      "ĠAlbert": 8927,
      "ĠkullanÄ±ldÄ±ÄŁÄ±": 8928,
      "ĠKanadalÄ±": 8929,
      "ĠTimur": 8930,
      "ĠaÄŁÄ±rlÄ±klÄ±": 8931,
      "Ġvez": 8932,
      "Ġhoc": 8933,
      "Ġfilminin": 8934,
      "Ġ1907": 8935,
      "ĠdoÄŁrul": 8936,
      "Ġmineral": 8937,
      "ĠDost": 8938,
      "ĠToplum": 8939,
      "ĠÄ°bn": 8940,
      "KiÅŁ": 8941,
      "ĠbaÅŁlÄ±": 8942,
      "Ã¼ye": 8943,
      "Ġlise": 8944,
      "aboratuvar": 8945,
      "ĠkiÅŁiye": 8946,
      "ĠformasÄ±": 8947,
      "Ġburaya": 8948,
      "ĠyargÄ±": 8949,
      "mede": 8950,
      "Ġ44": 8951,
      "Dan": 8952,
      "ahan": 8953,
      "evin": 8954,
      "tikÃ§e": 8955,
      "ÃŃa": 8956,
      "Rob": 8957,
      "ĠSaat": 8958,
      "oker": 8959,
      "ĠUlu": 8960,
      "Ġkoyu": 8961,
      "ĠYahudiler": 8962,
      "ĠTatar": 8963,
      "enti": 8964,
      "ĠBaraj": 8965,
      "ĠEP": 8966,
      "ĠyÄ±ldÄ±r": 8967,
      "Ġkentin": 8968,
      "Ġgeriye": 8969,
      "ĠhikÃ¢ye": 8970,
      "emat": 8971,
      "Ġfesh": 8972,
      "ĠÅŁif": 8973,
      "ĠbaÄŁÄ±r": 8974,
      "ĠgeliÅŁmeler": 8975,
      "ĠtopraklarÄ±na": 8976,
      "ĠKongresi": 8977,
      "ĠKaÃ§": 8978,
      "Ġcon": 8979,
      "oca": 8980,
      "ĠEver": 8981,
      "ĠanÄ±lÄ±r": 8982,
      "ĠolmasÄ±ndan": 8983,
      "Ġsokak": 8984,
      "ĠÃĸy": 8985,
      "Ġ43": 8986,
      "ĠÅŁehrinin": 8987,
      "Ã¼rken": 8988,
      "Ġkapan": 8989,
      "ĠBaÅŁar": 8990,
      "Ġstil": 8991,
      "ĠMcC": 8992,
      "Ġmekaniz": 8993,
      "lileri": 8994,
      "ĠRep": 8995,
      "Ġanne": 8996,
      "ĠbaÄŁlanmÄ±ÅŁtÄ±r": 8997,
      "Ġteknoloji": 8998,
      "ĠVI": 8999,
      "ĠkÃ¶ylÃ¼": 9000,
      "Ġisimler": 9001,
      "ĉĊ": 9002,
      "ĠProfes": 9003,
      "ĠÅŁov": 9004,
      "ĠkaÃ§Ä±n": 9005,
      "Portekizce": 9006,
      "gÄ±t": 9007,
      "Ã¼ÄŁÃ¼": 9008,
      "ĠFederal": 9009,
      "otoÄŁraf": 9010,
      "erse": 9011,
      "ĠChampionship": 9012,
      "eleneksel": 9013,
      "cal": 9014,
      "Ġarazi": 9015,
      "ĠbabasÄ±dÄ±r": 9016,
      "ĠbÃ¶cek": 9017,
      "ĠdaÄŁÄ±lÄ±mÄ±": 9018,
      "Ġsip": 9019,
      "ĠSum": 9020,
      "ĠsonlarÄ±na": 9021,
      "ĠbaÄŁlantÄ±lÄ±": 9022,
      "encer": 9023,
      "Ġredded": 9024,
      "Eserleri": 9025,
      "ĠJoe": 9026,
      "Ġfreguesia": 9027,
      "iber": 9028,
      "bor": 9029,
      "Ġdersleri": 9030,
      "Ġnetic": 9031,
      "ĠtanÄ±nÄ±r": 9032,
      "AL": 9033,
      "Ġted": 9034,
      "Ä°spanyol": 9035,
      "Ġpost": 9036,
      "okras": 9037,
      "ĠSimon": 9038,
      "Ġcemaat": 9039,
      "ĠkomÃ¼n": 9040,
      "ĠHein": 9041,
      "ĠacÄ±": 9042,
      "ĠTav": 9043,
      "ose": 9044,
      "Ġtoplama": 9045,
      "Ġakrab": 9046,
      "siklop": 9047,
      "ĠMurad": 9048,
      "Ot": 9049,
      "itr": 9050,
      "ĠalÄ±nÄ±r": 9051,
      "Ġ46": 9052,
      "1958": 9053,
      "|}": 9054,
      "ĠdayanÄ±r": 9055,
      "ĠGazetesi": 9056,
      "ĠOkyanusu": 9057,
      "sy": 9058,
      "ĠHard": 9059,
      "ĠMr": 9060,
      "eÄŁini": 9061,
      "Ġtemsilcisi": 9062,
      "ĠyaÄŁmur": 9063,
      "SD": 9064,
      "inia": 9065,
      "Ġoksi": 9066,
      "Ġyumur": 9067,
      "Ġvalisi": 9068,
      "kon": 9069,
      "ĠVokal": 9070,
      "ĠToplam": 9071,
      "ĠNATO": 9072,
      "rof": 9073,
      "ecer": 9074,
      "ĠgereÄŁi": 9075,
      "ĠkarÅŁÄ±ya": 9076,
      "Ġimal": 9077,
      "Ãľlk": 9078,
      "Ġdahi": 9079,
      "ĠkarÅŁÄ±lÄ±klÄ±": 9080,
      "ĠkÃ¶l": 9081,
      "ĠalmasÄ±": 9082,
      "Sel": 9083,
      "ido": 9084,
      "ĠsorunlarÄ±": 9085,
      "ĠClar": 9086,
      "gaz": 9087,
      "jinal": 9088,
      "ĠBi": 9089,
      "ĠKoz": 9090,
      "ĠRÄ±za": 9091,
      "oÄŁuk": 9092,
      "ĠanÄ±": 9093,
      "ĠhÃ¼kÃ¼mdarÄ±": 9094,
      "pir": 9095,
      "Ġgelindi": 9096,
      "ĠVik": 9097,
      "lÄ±ÄŁÄ±ndan": 9098,
      "ĠkÄ±zÄ±l": 9099,
      "ĠTelevizyon": 9100,
      "Ġyam": 9101,
      "Ġmor": 9102,
      "ĠKars": 9103,
      "Ġch": 9104,
      "1940": 9105,
      "ĠTakÄ±mÄ±": 9106,
      "ĠÃ§ekirde": 9107,
      "ĠÃ§ekirdek": 9108,
      "ĠuzunluÄŁunda": 9109,
      "ĠMardin": 9110,
      "ĠÃ¶lÃ§ek": 9111,
      "ĠsÄ±kÄ±": 9112,
      "ĠyaÅŁar": 9113,
      "YÃ¼k": 9114,
      "work": 9115,
      "ĠÃ¶v": 9116,
      "ĠLew": 9117,
      "ĠhÃ¢len": 9118,
      "AK": 9119,
      "ĠPi": 9120,
      "1954": 9121,
      "Ġolanlar": 9122,
      "ĠKong": 9123,
      "loy": 9124,
      "lemektedir": 9125,
      "Ġkatli": 9126,
      "ĠMont": 9127,
      "ĠCounty": 9128,
      "riz": 9129,
      "Ġkristal": 9130,
      "ĠÃ§am": 9131,
      "ÂłÂł": 9132,
      "ĠalbÃ¼mÃ¼nÃ¼n": 9133,
      "ĠdeÄŁiÅŁtirildi": 9134,
      "Siyas": 9135,
      "yaman": 9136,
      "ÅĤ": 9137,
      "ĠGab": 9138,
      "ĠkatÄ±lm": 9139,
      "ĠAB": 9140,
      "ĠFac": 9141,
      "ĠOrman": 9142,
      "ĠiliÅŁkisi": 9143,
      "Ġimparatoru": 9144,
      "ĠfÄ±rlat": 9145,
      "ĠBus": 9146,
      "Ġkatman": 9147,
      "Ġittifak": 9148,
      "ĠAbbas": 9149,
      "Ġduyurdu": 9150,
      "ĠKonstantinopolis": 9151,
      "ĠanÄ±t": 9152,
      "Ġsand": 9153,
      "ĠyaÅŁÄ±ndaki": 9154,
      "ĠtasarÄ±mÄ±": 9155,
      "ĠTen": 9156,
      "ĠdÄ±ÅŁÄ±na": 9157,
      "ĠAslan": 9158,
      "Ġgetirir": 9159,
      "Ġhepsi": 9160,
      "Din": 9161,
      "ÑĮ": 9162,
      "luÄŁuna": 9163,
      "ĠfizikÃ§i": 9164,
      "Ġpiyano": 9165,
      "ĠVadisi": 9166,
      "ced": 9167,
      "eliler": 9168,
      "ĠSÄ±": 9169,
      "ĠsÃ¶zÃ¼": 9170,
      "OM": 9171,
      "ĠyÃ¼zyÄ±la": 9172,
      "phen": 9173,
      "AÅŁaÄŁÄ±": 9174,
      "ektaÅŁ": 9175,
      "ĠolmalÄ±dÄ±r": 9176,
      "ĠBilgi": 9177,
      "limi": 9178,
      "ĠKamp": 9179,
      "Ġtarihindeki": 9180,
      "riyet": 9181,
      "obi": 9182,
      "ĠÃ¼yesidir": 9183,
      "ĠÅŀek": 9184,
      "ĠsÄ±radan": 9185,
      "ĠÃľniversite": 9186,
      "ĠuzaklÄ±kta": 9187,
      "ĠanlaÅŁmaz": 9188,
      "edat": 9189,
      "ĠUnder": 9190,
      "ĠKÃ¼tahya": 9191,
      "ĠZelanda": 9192,
      "ĠtÃ¶r": 9193,
      "Ġkurban": 9194,
      "ĠsaygÄ±": 9195,
      "ĠYapÄ±m": 9196,
      "KÄ±": 9197,
      "hard": 9198,
      "ĠGood": 9199,
      "uki": 9200,
      "ĠyerleÅŁti": 9201,
      "Ġdosy": 9202,
      "ĠNorth": 9203,
      "Ġsahnelen": 9204,
      "Ġakademik": 9205,
      "uydu": 9206,
      "ĠkÃ¶yÃ¼nÃ¼n": 9207,
      "addesi": 9208,
      "ĠvirÃ¼s": 9209,
      "ĠRah": 9210,
      "Ġbilgileri": 9211,
      "Trabzon": 9212,
      "ĠSub": 9213,
      "Ġoyunlar": 9214,
      "ĠTapÄ±n": 9215,
      "Ġkadrosu": 9216,
      "Ġmaden": 9217,
      "Ber": 9218,
      "cin": 9219,
      "ĠLeg": 9220,
      "imer": 9221,
      "ĠdeÄŁiÅŁen": 9222,
      "ĠSing": 9223,
      "ĠyapÄ±lm": 9224,
      "ĠQue": 9225,
      "ĠProfili": 9226,
      "Ġhalif": 9227,
      "ĠStalin": 9228,
      "Ġdetay": 9229,
      "ĠgÃ¼l": 9230,
      "ĠYukarÄ±": 9231,
      "erbest": 9232,
      "Ġpartiler": 9233,
      "meli": 9234,
      "yanÄ±": 9235,
      "ĠyÃ¼kselen": 9236,
      "Kap": 9237,
      "Ġpor": 9238,
      "malarÄ±n": 9239,
      "1957": 9240,
      "Äį": 9241,
      "ĠNitekim": 9242,
      "sit": 9243,
      "Ġaktris": 9244,
      "Ġkoleksiyon": 9245,
      "ĠMaz": 9246,
      "ebb": 9247,
      "Ġmaddi": 9248,
      "ĠSouth": 9249,
      "Ä±kÃ¶y": 9250,
      "ĠVlad": 9251,
      "ĠAltay": 9252,
      "Ġfilmidir": 9253,
      "ĠmaÃ§larÄ±": 9254,
      "1959": 9255,
      "Ġkutusu": 9256,
      "ĠÃ§arpÄ±ÅŁ": 9257,
[...]
